{"GO": 0, "EOS": 1, "UNK": 2, "，": 3, "的": 4, "。": 5, "\"": 6, "在": 7, "、": 8, "了": 9, "是": 10, "和": 11, "date": 12, "有": 13, "他": 14, "也": 15, "被": 16, ":": 17, "后": 18, "人": 19, "将": 20, "到": 21, "上": 22, "中": 23, "对": 24, "为": 25, "都": 26, "就": 27, "说": 28, "不": 29, "记者": 30, "等": 31, "年": 32, "我": 33, "与": 34, "时": 35, "并": 36, "但": 37, "-": 38, "还": 39, "她": 40, "从": 41, "没有": 42, "；": 43, "会": 44, "一个": 45, "中国": 46, "这": 47, "要": 48, "》": 49, "《": 50, "自己": 51, "称": 52, "一@@": 53, "着": 54, "表示": 55, "进行": 56, "个": 57, "而": 58, "大@@": 59, "公司": 60, "?": 61, "其": 62, "3": 63, "向": 64, "已": 65, "已经": 66, "下": 67, "小@@": 68, "工作": 69, "以": 70, "给": 71, "目前": 72, "我们": 73, "他们": 74, "不@@": 75, "日": 76, "1": 77, "该": 78, "发现": 79, "据": 80, "某": 81, "月": 82, "2": 83, "地": 84, "多": 85, "来": 86, "孩子": 87, "里": 88, "大": 89, "内": 90, "于": 91, "让": 92, "点": 93, "4": 94, "5": 95, "岁": 96, "问题": 97, "可能": 98, "去": 99, "市": 100, "一": 101, "6": 102, "过": 103, "调查": 104, "很": 105, "发生": 106, "前": 107, "情况": 108, "元": 109, "用": 110, "分": 111, "10": 112, "又": 113, "time": 114, "警方": 115, "把": 116, "区": 117, "出": 118, "民警": 119, "新": 120, "相关": 121, "及": 122, "名": 123, "医院": 124, "能": 125, "李@@": 126, "你": 127, "可以": 128, "现场": 129, "王@@": 130, "时间": 131, "张@@": 132, "家": 133, "中@@": 134, "人员": 135, "县": 136, "这个": 137, "至": 138, "子": 139, "好": 140, "今年": 141, "通过": 142, "男子": 143, "车": 144, "—": 145, "万元": 146, "部门": 147, "市场": 148, "出现": 149, "7": 150, "开始": 151, "8": 152, "性": 153, "钱": 154, "得": 155, "一名": 156, "高@@": 157, "认为": 158, "做": 159, "起": 160, "曾": 161, "其中": 162, "！": 163, "显示": 164, "由": 165, "报道": 166, "企业": 167, "因": 168, "更": 169, "三@@": 170, "路": 171, "小": 172, "就是": 173, "当时": 174, "因为": 175, "没": 176, "了解": 177, "要求": 178, "正在": 179, "介绍": 180, "政府": 181, "9": 182, "才": 183, "如果": 184, "国家": 185, "或": 186, "者": 187, "人@@": 188, "发布": 189, "北京": 190, "20": 191, ".": 192, "陈@@": 193, "这些": 194, "告诉": 195, "多@@": 196, "成": 197, "两@@": 198, "刘@@": 199, "看到": 200, "一些": 201, "想": 202, "现在": 203, "副": 204, "发展": 205, "金@@": 206, "消息": 207, "还有": 208, "新@@": 209, "一直": 210, "可": 211, "影响": 212, "打": 213, "上@@": 214, "同时": 215, "第": 216, "高": 217, "根据": 218, "水": 219, "经": 220, "下午": 221, "分钟": 222, "对于": 223, "走": 224, "小时": 225, "头": 226, "看": 227, "这样": 228, "再": 229, "学生": 230, "之后": 231, "却": 232, "规定": 233, "号": 234, "由于": 235, "山": 236, "则": 237, "们": 238, "水@@": 239, "经济": 240, "打@@": 241, "网": 242, "海@@": 243, "需要": 244, "有关": 245, "组织": 246, "信息": 247, "无@@": 248, "天@@": 249, "网友": 250, "比": 251, "还是": 252, "带": 253, "一起": 254, "其他": 255, "随后": 256, "美国": 257, "局": 258, "部": 259, "管理": 260, "主要": 261, "12": 262, "所": 263, "约": 264, "不是": 265, "学校": 266, "昨日": 267, "村": 268, "处": 269, "有@@": 270, "发@@": 271, "当地": 272, "接受": 273, "先生": 274, "行为": 275, "项目": 276, "队": 277, "以及": 278, "投资": 279, "左右": 280, "工作人员": 281, "开@@": 282, "马@@": 283, "/": 284, "长": 285, "黄@@": 286, "活动": 287, "住": 288, "11": 289, "站": 290, "方面": 291, "自@@": 292, "均": 293, "最": 294, "安全": 295, "仍": 296, "事": 297, "建设": 298, "文@@": 299, "儿子": 300, "下@@": 301, "镇": 302, "成为": 303, "但是": 304, "中心": 305, "国@@": 306, "城市": 307, "造成": 308, "开": 309, "出@@": 310, "女儿": 311, "亿元": 312, "提供": 313, "案件": 314, "张": 315, "米": 316, "只": 317, "老@@": 318, "万@@": 319, "地区": 320, "一位": 321, "道": 322, "电话": 323, "事故": 324, "不能": 325, "生": 326, "单位": 327, "部分": 328, "次": 329, "希望": 330, "城": 331, "严重": 332, "东@@": 333, "按照": 334, "之@@": 335, "很多": 336, "银行": 337, "为了": 338, "知道": 339, "外@@": 340, "军": 341, "发": 342, "天": 343, "什么": 344, "地@@": 345, "派出所": 346, "外": 347, "4@@": 348, "化": 349, "嫌疑人": 350, "决定": 351, "两个": 352, "门": 353, "手机": 354, "不过": 355, "生活": 356, "力": 357, "万": 358, "作为": 359, "附近": 360, "关系": 361, "集团": 362, "2@@": 363, "去年": 364, "3@@": 365, "分@@": 366, "上午": 367, "法院": 368, "犯罪": 369, "进入": 370, "近": 371, "主任": 372, "包括": 373, "时候": 374, "30": 375, "南": 376, "西@@": 377, "手": 378, "社会": 379, "球": 380, "南@@": 381, "未": 382, "事件": 383, "处理": 384, "杨@@": 385, "领导": 386, "案": 387, "机": 388, "当": 389, "费": 390, "女子": 391, "继续": 392, "死亡": 393, "长@@": 394, "媒体": 395, "四@@": 396, "原因": 397, "使用": 398, "安@@": 399, "经过": 400, "场": 401, "某@@": 402, "一家": 403, "周@@": 404, "地方": 405, "负责人": 406, "关注": 407, "事发": 408, "存在": 409, "5@@": 410, "村民": 411, "进一步": 412, "阿@@": 413, "拉@@": 414, "线": 415, "两人": 416, "15": 417, "标准": 418, "大学": 419, "原": 420, "十@@": 421, "华": 422, "女士": 423, "6@@": 424, "过程": 425, "心@@": 426, "五@@": 427, "公安局": 428, "以上": 429, "入": 430, "妻子": 431, "最后": 432, "斯": 433, "报": 434, "一次": 435, "价格": 436, "进": 437, "跟": 438, "资金": 439, "全@@": 440, "虽然": 441, "服务": 442, "华@@": 443, "这@@": 444, "讯": 445, "达": 446, "医生": 447, "父亲": 448, "林": 449, "明": 450, "便": 451, "有限公司": 452, "最终": 453, "日本": 454, "电": 455, "王": 456, "图片": 457, "文": 458, "非常": 459, "双方": 460, "吃": 461, "行": 462, "同@@": 463, "全国": 464, "期间": 465, "罗@@": 466, "老师": 467, "联系": 468, "不会": 469, "找": 470, "准备": 471, "50": 472, "红@@": 473, "楼": 474, "后@@": 475, "这种": 476, "母亲": 477, "口": 478, "强": 479, "某某": 480, "加@@": 481, "政策": 482, "超过": 483, "重要": 484, "家@@": 485, "干部": 486, "提出": 487, "应该": 488, "车辆": 489, "正": 490, "本@@": 491, "增长": 492, "老人": 493, "7@@": 494, "位": 495, "生@@": 496, "心": 497, "内@@": 498, "车@@": 499, "正@@": 500, "二@@": 501, "方": 502, "过@@": 503, "·": 504, "或者": 505, "方式": 506, "拉": 507, "父母": 508, "像": 509, "尔": 510, "请": 511, "报警": 512, "系统": 513, "法": 514, "人士": 515, "出来": 516, "国": 517, "是否": 518, "不少": 519, "平": 520, "书记": 521, "州": 522, "前@@": 523, "条": 524, "任": 525, "吴@@": 526, "朋友": 527, "网络": 528, "交@@": 529, "突然": 530, "市民": 531, "办": 532, "司机": 533, "级": 534, "透露": 535, "国际": 536, "白@@": 537, "只有": 538, "来到": 539, "实施": 540, "金": 541, "重@@": 542, "所以": 543, "拿": 544, "导致": 545, "新闻": 546, "机构": 547, "林@@": 548, "有人": 549, "本": 550, "甚至": 551, "德@@": 552, "直接": 553, "2014": 554, "平@@": 555, "女": 556, "总@@": 557, "这是": 558, "此前": 559, "分别": 560, "大家": 561, "采访": 562, "业务": 563, "参加": 564, "建@@": 565, "时@@": 566, "时许": 567, "找到": 568, "美@@": 569, "检查": 570, "克": 571, "微博": 572, "对方": 573, "江": 574, "较": 575, "特@@": 576, "无法": 577, "当天": 578, "得到": 579, "之前": 580, "量": 581, "事情": 582, "结果": 583, "跑": 584, "数据": 585, "员": 586, "教育": 587, "几@@": 588, "那": 589, "日@@": 590, "因此": 591, "收入": 592, "注意": 593, "山@@": 594, "德": 595, "获得": 596, "觉得": 597, "上海": 598, "未来": 599, "比赛": 600, "手@@": 601, ">": 602, "花": 603, "公@@": 604, "涉嫌": 605, "主@@": 606, "海": 607, "起来": 608, "一定": 609, "产品": 610, "面": 611, "之": 612, "8@@": 613, "价": 614, "14": 615, "对@@": 616, "视频": 617, "16": 618, "比较": 619, "相@@": 620, "东": 621, "应": 622, "买": 623, "收@@": 624, "省": 625, "100": 626, "北@@": 627, "店": 628, "龙": 629, "研究": 630, "近日": 631, "台": 632, "家人": 633, "a": 634, "第一": 635, "接到": 636, "死": 637, "持续": 638, "利": 639, "自": 640, "股": 641, "回": 642, "报告": 643, "计划": 644, "13": 645, "达到": 646, "电@@": 647, "18": 648, "所有": 649, "期": 650, "送": 651, "明@@": 652, "权": 653, "一辆": 654, "永@@": 655, "照片": 656, "巴@@": 657, "气": 658, "龙@@": 659, "完成": 660, "可@@": 661, "立即": 662, "伤": 663, "清@@": 664, "改革": 665, "而且": 666, "技术": 667, "它": 668, "受": 669, "’": 670, "小区": 671, "今天": 672, "公开": 673, "保@@": 674, "‘": 675, "关于": 676, "转@@": 677, "且": 678, "公布": 679, "学@@": 680, "赶到": 681, "名@@": 682, "见": 683, "网站": 684, "成@@": 685, "刚": 686, "调整": 687, "房": 688, "再次": 689, "间": 690, "利@@": 691, "责任": 692, "群众": 693, "个人": 694, "以来": 695, "阳": 696, "全部": 697, "40": 698, "只是": 699, "居民": 700, "江@@": 701, "0.@@": 702, "声": 703, "边": 704, "罪": 705, "受伤": 706, "重": 707, "定": 708, "过去": 709, "克@@": 710, "多次": 711, "无": 712, "预计": 713, "利用": 714, "率": 715, "专家": 716, "特别": 717, "选择": 718, "内容": 719, "问": 720, "合作": 721, "花@@": 722, "1@@": 723, "后来": 724, "数@@": 725, "年@@": 726, "能力": 727, "双@@": 728, "款": 729, "怎么": 730, "头@@": 731, "其@@": 732, "9@@": 733, "加强": 734, "措施": 735, "新浪": 736, "开展": 737, "此外": 738, "女@@": 739, "风@@": 740, "任何": 741, "离开": 742, "占": 743, "依法": 744, "晚上": 745, "信": 746, "不同": 747, "会议": 748, "参与": 749, "17": 750, "以@@": 751, "生产": 752, "家庭": 753, "一年": 754, "2.@@": 755, "回@@": 756, "一样": 757, "石@@": 758, "另外": 759, "军@@": 760, "家属": 761, "院": 762, "1.@@": 763, "增加": 764, "支持": 765, "人民币": 766, "用@@": 767, "网上": 768, "度": 769, "21": 770, "除了": 771, "特": 772, "最大": 773, "战": 774, "反@@": 775, "系": 776, "业": 777, "火@@": 778, "制度": 779, "掉": 780, "控制": 781, "那么": 782, "丈夫": 783, "图": 784, "做好": 785, "而@@": 786, "此次": 787, "a@@": 788, "叫": 789, "连@@": 790, "好@@": 791, "呢": 792, "中央": 793, "每@@": 794, "凌晨": 795, "2015": 796, "回家": 797, "科": 798, "仅": 799, "斯@@": 800, "不要": 801, "这么": 802, "治疗": 803, "该@@": 804, "工程": 805, "必须": 806, "卡": 807, "河": 808, "家长": 809, "来自": 810, "0": 811, "进@@": 812, "执行": 813, "经营": 814, "人民": 815, "古@@": 816, "对此": 817, "成功": 818, "24": 819, "没@@": 820, "纪委": 821, "太@@": 822, "s@@": 823, "卡@@": 824, "基本": 825, "三": 826, "单@@": 827, "销售": 828, "行@@": 829, "通报": 830, "汽车": 831, "类": 832, "方@@": 833, "余@@": 834, "25": 835, "证": 836, "情": 837, "采取": 838, "正式": 839, "此事": 840, "2013": 841, "赵@@": 842, "空@@": 843, "晚": 844, "所@@": 845, "条件": 846, "能够": 847, "负责": 848, "吗": 849, "行业": 850, "如": 851, "徐@@": 852, "官员": 853, "结束": 854, "法律": 855, "尔@@": 856, "武@@": 857, "路@@": 858, "书": 859, "动": 860, "亚@@": 861, "保护": 862, "光@@": 863, "同学": 864, "分析": 865, "首@@": 866, "实现": 867, "3.@@": 868, "深@@": 869, "李": 870, "雷电": 871, "之间": 872, "交易": 873, "桥": 874, "快": 875, "乘客": 876, "老": 877, "百@@": 878, "连续": 879, "昨天": 880, "位于": 881, "基金": 882, "入@@": 883, "帮助": 884, "19@@": 885, "世界": 886, "来@@": 887, "下来": 888, "公里": 889, "为@@": 890, "身": 891, "如何": 892, "民@@": 893, "职务": 894, "会@@": 895, "门@@": 896, "器": 897, "定@@": 898, "各": 899, "受到": 900, "关@@": 901, "证明": 902, "违法": 903, "铁@@": 904, "光": 905, "女孩": 906, "购买": 907, "安": 908, "反映": 909, "通@@": 910, "官方": 911, "体": 912, "物": 913, "写": 914, "儿": 915, "有些": 916, "家里": 917, "具体": 918, "不到": 919, "共": 920, "博@@": 921, "19": 922, "资料": 923, "两名": 924, "迅速": 925, "户": 926, "一种": 927, "美": 928, "属于": 929, "经@@": 930, "200": 931, "正常": 932, "型": 933, "胡@@": 934, "建议": 935, "指出": 936, "合@@": 937, "宣布": 938, "旅游": 939, "马": 940, "这一": 941, "0@@": 942, "一般": 943, "太": 944, "回应": 945, "红": 946, "室": 947, "失@@": 948, "科@@": 949, "六@@": 950, "不断": 951, "牌": 952, "接@@": 953, "话": 954, "考虑": 955, "峰": 956, "谁": 957, "安排": 958, "段": 959, "办理": 960, "朱@@": 961, "春@@": 962, "从@@": 963, "确定": 964, "范围": 965, "副@@": 966, "中国@@": 967, "22": 968, "上述": 969, "获悉": 970, "节": 971, "深圳": 972, "工": 973, "办公室": 974, "通知": 975, "广州": 976, "比@@": 977, "妈妈": 978, "孙@@": 979, "4.@@": 980, "行动": 981, "未@@": 982, "平台": 983, "用户": 984, "意见": 985, "建": 986, "解决": 987, "信@@": 988, "杨": 989, "下降": 990, "天气": 991, "成立": 992, "管": 993, "药": 994, "件": 995, "放@@": 996, "担任": 997, "李某": 998, "常@@": 999, "动@@": 1000, "起@@": 1001, "此": 1002, "这里": 1003, "酒店": 1004, "病": 1005, "区域": 1006, "实@@": 1007, "最高": 1008, "环境": 1009, "学": 1010, "气@@": 1011, "针对": 1012, "另": 1013, "大量": 1014, "机@@": 1015, "体@@": 1016, "何@@": 1017, "其实": 1018, "截至": 1019, "这次": 1020, "维@@": 1021, "品": 1022, "引发": 1023, "每天": 1024, "按": 1025, "明显": 1026, "代表": 1027, "总": 1028, "今日": 1029, "当@@": 1030, "使": 1031, "制": 1032, "香港": 1033, "乡": 1034, "及时": 1035, "政@@": 1036, "先": 1037, "热@@": 1038, "风险": 1039, "国内": 1040, "身份": 1041, "23": 1042, "连": 1043, "厂": 1044, "爱": 1045, "州市": 1046, "抓获": 1047, "完": 1048, "伟": 1049, "面@@": 1050, "二": 1051, "黑@@": 1052, "学院": 1053, "监管": 1054, "办法": 1055, "举报": 1056, "机场": 1057, "b@@": 1058, "给予": 1059, "里@@": 1060, "历史": 1061, "m@@": 1062, "点@@": 1063, "代@@": 1064, "立@@": 1065, "我@@": 1066, "机会": 1067, "指": 1068, "工@@": 1069, "申请": 1070, "5.@@": 1071, "形成": 1072, "老板": 1073, "主席": 1074, "低": 1075, "然后": 1076, "风": 1077, "作": 1078, "看@@": 1079, "倒": 1080, "吉@@": 1081, "员工": 1082, "c@@": 1083, "民": 1084, "交通": 1085, "文化": 1086, "引起": 1087, "原@@": 1088, "道路": 1089, "层": 1090, "g@@": 1091, "专业": 1092, "直@@": 1093, "河@@": 1094, "卖": 1095, "e@@": 1096, "街": 1097, "只能": 1098, "应@@": 1099, "监控": 1100, "方案": 1101, "费用": 1102, "口@@": 1103, "苏@@": 1104, "科技": 1105, "经常": 1106, "证实": 1107, "多年": 1108, "青@@": 1109, "轮": 1110, "远": 1111, "家中": 1112, "先后": 1113, "式": 1114, "如@@": 1115, "完全": 1116, "提高": 1117, "几个": 1118, "千@@": 1119, "先@@": 1120, "涉及": 1121, "非法": 1122, "被告人": 1123, "各@@": 1124, "晓@@": 1125, "患者": 1126, "月份": 1127, "身@@": 1128, "律师": 1129, "推@@": 1130, "查看": 1131, "水平": 1132, "微信": 1133, "警察": 1134, "木@@": 1135, "包": 1136, "身体": 1137, "支付": 1138, "八@@": 1139, "确认": 1140, "往": 1141, "意": 1142, "前往": 1143, "来源": 1144, "玉@@": 1145, "于是": 1146, "6.@@": 1147, "清": 1148, "沙@@": 1149, "市@@": 1150, "源": 1151, "随着": 1152, "田@@": 1153, "理@@": 1154, "救援": 1155, "兵": 1156, "半@@": 1157, "受@@": 1158, "他人": 1159, "然而": 1160, "男": 1161, "片": 1162, "非": 1163, "广@@": 1164, "调@@": 1165, "60": 1166, "赛": 1167, "班": 1168, "听": 1169, "要@@": 1170, "兰@@": 1171, "商@@": 1172, "最@@": 1173, "爱@@": 1174, "我国": 1175, "城@@": 1176, "来说": 1177, "应当": 1178, "产生": 1179, "组": 1180, "查": 1181, "西": 1182, "游客": 1183, "飞": 1184, "警@@": 1185, "一天": 1186, "加": 1187, "飞机": 1188, "确实": 1189, "以后": 1190, "得@@": 1191, "韩国": 1192, "包@@": 1193, "500": 1194, "委员会": 1195, "走@@": 1196, "早": 1197, "80": 1198, "秒": 1199, "身上": 1200, "东西": 1201, "布@@": 1202, "陈": 1203, "取": 1204, "开发": 1205, "同": 1206, "党": 1207, "房@@": 1208, "推进": 1209, "感觉": 1210, "超": 1211, "周": 1212, "少": 1213, "拍": 1214, "团": 1215, "重点": 1216, "不仅": 1217, "冲@@": 1218, "福@@": 1219, "报@@": 1220, "湖": 1221, "通": 1222, "带来": 1223, "一下": 1224, "投@@": 1225, "专@@": 1226, "数": 1227, "市委": 1228, "明确": 1229, "中新网": 1230, "吧": 1231, "成员": 1232, "税": 1233, "兴@@": 1234, "表现": 1235, "低@@": 1236, "亲@@": 1237, "p@@": 1238, "赔偿": 1239, "法@@": 1240, "流@@": 1241, "设备": 1242, "最近": 1243, "压力": 1244, "处罚": 1245, "公安机关": 1246, "7.@@": 1247, "宝@@": 1248, "资产": 1249, "登记": 1250, "雷@@": 1251, "规划": 1252, "目标": 1253, "保障": 1254, "一条": 1255, "取得": 1256, "难": 1257, "整个": 1258, "之一": 1259, "t@@": 1260, "俄罗斯": 1261, "作出": 1262, "子@@": 1263, "工资": 1264, "利益": 1265, "防@@": 1266, "日前": 1267, "房子": 1268, "全面": 1269, "农@@": 1270, "合同": 1271, "战@@": 1272, "并未": 1273, "预警": 1274, "波": 1275, "再@@": 1276, "石": 1277, "种": 1278, "强@@": 1279, "云@@": 1280, "即": 1281, "同比": 1282, "郑@@": 1283, "驾驶": 1284, "盘": 1285, "稳定": 1286, "面对": 1287, "协议": 1288, "血@@": 1289, "交警": 1290, "装": 1291, "机关": 1292, "土地": 1293, "满": 1294, "火": 1295, "价值": 1296, "需": 1297, "股份": 1298, "回来": 1299, "神@@": 1300, "展开": 1301, "刀": 1302, "积极": 1303, "局长": 1304, "单": 1305, "满@@": 1306, "京报": 1307, "南京": 1308, "那@@": 1309, "28": 1310, "传@@": 1311, "追@@": 1312, "领先": 1313, "举行": 1314, "作用": 1315, "信号": 1316, "手术": 1317, "儿童": 1318, "铁路": 1319, "首次": 1320, "复@@": 1321, "七@@": 1322, "座": 1323, "因@@": 1324, "超@@": 1325, "学习": 1326, "岛": 1327, "s": 1328, "说法": 1329, "夫": 1330, "村@@": 1331, "l@@": 1332, "几乎": 1333, "得知": 1334, "管@@": 1335, "商": 1336, "领@@": 1337, "罗": 1338, "汉@@": 1339, "房地产": 1340, "师": 1341, "多个": 1342, "排@@": 1343, "英@@": 1344, "运@@": 1345, "行政": 1346, "多名": 1347, "令": 1348, "d@@": 1349, "很快": 1350, "日期": 1351, "在@@": 1352, "过来": 1353, "喜欢": 1354, "职责": 1355, "委": 1356, "建立": 1357, "i@@": 1358, "认识": 1359, "干@@": 1360, "减少": 1361, "2012": 1362, "互联网": 1363, "两": 1364, "重大": 1365, "元@@": 1366, "厅": 1367, "已@@": 1368, "10@@": 1369, "市长": 1370, "陈某": 1371, "网@@": 1372, "保持": 1373, "8.@@": 1374, "70": 1375, "三个": 1376, "变@@": 1377, "方向": 1378, "证据": 1379, "空": 1380, "感": 1381, "韩@@": 1382, "中午": 1383, "转": 1384, "停@@": 1385, "来看": 1386, "血": 1387, "提@@": 1388, "郭@@": 1389, "回到": 1390, "金融": 1391, "贷款": 1392, "亮": 1393, "亿": 1394, "成都": 1395, "修@@": 1396, "省@@": 1397, "流": 1398, "教@@": 1399, "领域": 1400, "位置": 1401, "全球": 1402, "预@@": 1403, "游@@": 1404, "解释": 1405, "许": 1406, "提醒": 1407, "色": 1408, "飞@@": 1409, "真@@": 1410, "主": 1411, "顺@@": 1412, "程": 1413, "如此": 1414, "胜": 1415, "联@@": 1416, "精神": 1417, "届": 1418, "干": 1419, "这位": 1420, "门口": 1421, "执法": 1422, "难@@": 1423, "各种": 1424, "撞": 1425, "买@@": 1426, "长期": 1427, "部长": 1428, "违纪": 1429, "病@@": 1430, "园": 1431, "化@@": 1432, "乐": 1433, "很大": 1434, "的话": 1435, "o@@": 1436, "综合": 1437, "落": 1438, "实际": 1439, "事@@": 1440, "设计": 1441, "志@@": 1442, "九@@": 1443, "客": 1444, "危险": 1445, "带@@": 1446, "具有": 1447, "奥@@": 1448, "纳@@": 1449, "离婚": 1450, "健康": 1451, "坚持": 1452, "十分": 1453, "改@@": 1454, "底": 1455, "哈@@": 1456, "平时": 1457, "宁": 1458, "远@@": 1459, "台@@": 1460, "禁区": 1461, "关": 1462, "传": 1463, "星": 1464, "乐@@": 1465, "u@@": 1466, "担心": 1467, "越@@": 1468, "26": 1469, "同意": 1470, "据悉": 1471, "黄": 1472, "清楚": 1473, "死者": 1474, "而是": 1475, "里面": 1476, "板": 1477, "同样": 1478, "伊@@": 1479, "公众": 1480, "没想到": 1481, "鱼": 1482, "犯": 1483, "实": 1484, "融资": 1485, "架": 1486, "联合": 1487, "姓": 1488, "啊": 1489, "船": 1490, "终于": 1491, "亿美元": 1492, "规模": 1493, "为什么": 1494, "防御": 1495, "勇": 1496, "认定": 1497, "力@@": 1498, "2000": 1499, "兰": 1500, "吃@@": 1501, "状态": 1502, "肯定": 1503, "愿意": 1504, "纳": 1505, "群": 1506, "酒": 1507, "高速": 1508, "字": 1509, "第一@@": 1510, "监督": 1511, "王某": 1512, "城区": 1513, "值": 1514, "f@@": 1515, "死@@": 1516, "除": 1517, "假@@": 1518, "靠": 1519, "27": 1520, "普@@": 1521, "道@@": 1522, "套": 1523, "非@@": 1524, "派": 1525, "线索": 1526, "结婚": 1527, "被@@": 1528, "杰": 1529, "i": 1530, "英": 1531, "梁@@": 1532, "达@@": 1533, "翻@@": 1534, "任@@": 1535, "辉": 1536, "距离": 1537, "临@@": 1538, "机制": 1539, "询问": 1540, "一张": 1541, "记录": 1542, "说@@": 1543, "这名": 1544, "谈": 1545, "亚": 1546, "拒绝": 1547, "阶段": 1548, "田": 1549, "并且": 1550, "5%": 1551, "至今": 1552, "投资者": 1553, "停": 1554, "现象": 1555, "高考": 1556, "公安": 1557, "选@@": 1558, "人民法院": 1559, "广东": 1560, "c": 1561, "打电话": 1562, "上涨": 1563, "有期徒刑": 1564, "此后": 1565, "听到": 1566, "成本": 1567, "当晚": 1568, "产业": 1569, "极@@": 1570, "才能": 1571, "招@@": 1572, "一点": 1573, "产@@": 1574, "材料": 1575, "精@@": 1576, "云": 1577, "合": 1578, "全": 1579, "基础": 1580, "向@@": 1581, "狗": 1582, "每": 1583, "离@@": 1584, "几天": 1585, "广场": 1586, "容易": 1587, "此@@": 1588, "体育": 1589, "装@@": 1590, "养": 1591, "处分": 1592, "启动": 1593, "许多": 1594, "然": 1595, "如今": 1596, "拥有": 1597, "共同": 1598, "官": 1599, "帮": 1600, "张某": 1601, "遭遇": 1602, "结@@": 1603, "天津": 1604, "90": 1605, "原来": 1606, "比如": 1607, "刘": 1608, "只要": 1609, "至少": 1610, "谢@@": 1611, "指@@": 1612, "住房": 1613, "主动": 1614, "判处": 1615, "一份": 1616, "港": 1617, "数量": 1618, "解@@": 1619, "油@@": 1620, "块": 1621, "比例": 1622, "第二@@": 1623, "程度": 1624, "k@@": 1625, "男@@": 1626, "见到": 1627, "证券": 1628, "情@@": 1629, "作@@": 1630, "召开": 1631, "篮板": 1632, "私@@": 1633, "曾经": 1634, "离": 1635, "寻找": 1636, "不得": 1637, "落@@": 1638, "打工": 1639, "防范": 1640, "事实": 1641, "办案": 1642, "近期": 1643, "热": 1644, "照": 1645, "镇@@": 1646, "每年": 1647, "300": 1648, "初步": 1649, "运": 1650, "问@@": 1651, "出租车": 1652, "补@@": 1653, "制@@": 1654, "威@@": 1655, "格@@": 1656, "穿": 1657, "违规": 1658, "直到": 1659, "程序": 1660, "更@@": 1661, "枪": 1662, "小孩": 1663, "养@@": 1664, "落实": 1665, "你们": 1666, "属": 1667, "教": 1668, "现金": 1669, "接": 1670, "每个": 1671, "立": 1672, "优势": 1673, "第一次": 1674, "少@@": 1675, "以下": 1676, "消费": 1677, "任务": 1678, "9.@@": 1679, "摄": 1680, "处于": 1681, "米@@": 1682, "收": 1683, "考@@": 1684, "抓": 1685, "试@@": 1686, "做@@": 1687, "辆": 1688, "毒@@": 1689, "省委": 1690, "电梯": 1691, "以前": 1692, "球队": 1693, "社": 1694, "董事长": 1695, "理": 1696, "银@@": 1697, "森": 1698, "陆@@": 1699, "资源": 1700, "有效": 1701, "到@@": 1702, "社区": 1703, "电影": 1704, "格": 1705, "波@@": 1706, "审理": 1707, "引@@": 1708, "出生": 1709, "说明": 1710, "步": 1711, "取@@": 1712, "毛@@": 1713, "唐@@": 1714, "需求": 1715, "用于": 1716, "类似": 1717, "眼": 1718, "考试": 1719, "余": 1720, "北": 1721, "金额": 1722, "尽管": 1723, "n@@": 1724, "面积": 1725, "遇到": 1726, "内部": 1727, "建筑": 1728, "做出": 1729, "洪@@": 1730, "侦查": 1731, "越来越": 1732, "仍然": 1733, "奖": 1734, "198@@": 1735, "收到": 1736, "角": 1737, "检察院": 1738, "深": 1739, "人口": 1740, "师傅": 1741, "变化": 1742, "指南": 1743, "和@@": 1744, "北京@@": 1745, "依然": 1746, "上市": 1747, "第二": 1748, "白": 1749, "近@@": 1750, "留@@": 1751, "顶": 1752, "奇": 1753, "斌": 1754, "吴": 1755, "两年": 1756, "更加": 1757, "书@@": 1758, "皮@@": 1759, "四川": 1760, "涨": 1761, "增@@": 1762, "山东": 1763, "倍": 1764, "当年": 1765, "温@@": 1766, "爆炸": 1767, "权@@": 1768, "委员": 1769, "年轻": 1770, "世@@": 1771, "重庆": 1772, "出去": 1773, "星@@": 1774, "29": 1775, "箱": 1776, "3%": 1777, "钱@@": 1778, "一场": 1779, "构成": 1780, "河南": 1781, "退@@": 1782, "票": 1783, "鉴定": 1784, "代": 1785, "资本": 1786, "为何": 1787, "并@@": 1788, "玩": 1789, "真的": 1790, "大队": 1791, "农村": 1792, "国务院": 1793, "脚": 1794, "卫": 1795, "放": 1796, "语": 1797, "强调": 1798, "馆": 1799, "房屋": 1800, "尼@@": 1801, "迪@@": 1802, "查@@": 1803, "承担": 1804, "校@@": 1805, "统一": 1806, "e": 1807, "洛@@": 1808, "英国": 1809, "年底": 1810, "行驶": 1811, "推动": 1812, "早上": 1813, "见@@": 1814, "丽@@": 1815, "11@@": 1816, "易@@": 1817, "排": 1818, "食@@": 1819, "获": 1820, "界": 1821, "承认": 1822, "集中": 1823, "塔@@": 1824, "35": 1825, "y@@": 1826, "完善": 1827, "切@@": 1828, "当日": 1829, "女性": 1830, "杀": 1831, "想@@": 1832, "浙江": 1833, "政治": 1834, "项": 1835, "不好": 1836, "图@@": 1837, "气象台": 1838, "地上": 1839, "基@@": 1840, "能@@": 1841, "2011": 1842, "您": 1843, "品牌": 1844, "此时": 1845, "国家@@": 1846, "小学": 1847, "球员": 1848, "生命": 1849, "意识": 1850, "模式": 1851, "越": 1852, "一边": 1853, "核@@": 1854, "个@@": 1855, "雷": 1856, "根": 1857, "还要": 1858, "及其": 1859, "平均": 1860, "刘某": 1861, "违反": 1862, "1000": 1863, "性@@": 1864, "尼": 1865, "部队": 1866, "配合": 1867, "污染": 1868, "黄色": 1869, "左@@": 1870, "梅@@": 1871, "康@@": 1872, "经历": 1873, "初@@": 1874, "努力": 1875, "提升": 1876, "多少": 1877, "股票": 1878, "衣服": 1879, "巨大": 1880, "娱乐": 1881, "宋@@": 1882, "判决": 1883, "专门": 1884, "抢救": 1885, "职工": 1886, "土@@": 1887, "台湾": 1888, "卖@@": 1889, "警": 1890, "待": 1891, "治": 1892, "版": 1893, "庆@@": 1894, "别人": 1895, "货": 1896, "破@@": 1897, "亿@@": 1898, "就@@": 1899, "损失": 1900, "黑": 1901, "7%": 1902, "扩大": 1903, "楼@@": 1904, "松@@": 1905, "120": 1906, "人们": 1907, "烟@@": 1908, "t": 1909, "轿车": 1910, "文件": 1911, "于@@": 1912, "服": 1913, "中学": 1914, "击@@": 1915, "友": 1916, "假": 1917, "盘@@": 1918, "h@@": 1919, "周边": 1920, "地点": 1921, "公园": 1922, "股市": 1923, "卫@@": 1924, "压": 1925, "教师": 1926, "幼儿园": 1927, "原文": 1928, "8%": 1929, "富@@": 1930, "涛": 1931, "微@@": 1932, "功能": 1933, "份": 1934, "承@@": 1935, "保安": 1936, "成绩": 1937, "整@@": 1938, "处@@": 1939, "考生": 1940, "创新": 1941, "遭": 1942, "喝": 1943, "早@@": 1944, "救": 1945, "6%": 1946, "许@@": 1947, "表": 1948, "酒@@": 1949, "抱": 1950, "防": 1951, "瑞@@": 1952, "运营": 1953, "食品": 1954, "两次": 1955, "医疗": 1956, "武汉": 1957, "消防": 1958, "参@@": 1959, "回忆": 1960, "质量": 1961, "借@@": 1962, "泰@@": 1963, "年龄": 1964, "大部分": 1965, "予以": 1966, "图例": 1967, "集@@": 1968, "诺": 1969, "校": 1970, "了@@": 1971, "指数": 1972, "意外": 1973, "围@@": 1974, "毕业": 1975, "作业": 1976, "统计": 1977, "以为": 1978, "空间": 1979, "2%": 1980, "轻@@": 1981, "公告": 1982, "一人": 1983, "算": 1984, "油": 1985, "知": 1986, "资": 1987, "产": 1988, "批准": 1989, "是因为": 1990, "战略": 1991, "根本": 1992, "差": 1993, "@": 1994, "居": 1995, "面临": 1996, "巡视": 1997, "洗@@": 1998, "巨@@": 1999, "媒体报道": 2000, "客户": 2001, "供@@": 2002, "物@@": 2003, "公交车": 2004, "受贿": 2005, "三分": 2006, "制定": 2007, "4%": 2008, "沪": 2009, "曾@@": 2010, "推出": 2011, "2010": 2012, "毒品": 2013, "致": 2014, "送@@": 2015, "列": 2016, "质疑": 2017, "优@@": 2018, "取消": 2019, "当场": 2020, "布": 2021, "偏@@": 2022, "送到": 2023, "惊@@": 2024, "不再": 2025, "身份证": 2026, "到底": 2027, "移动": 2028, "二人": 2029, "菜": 2030, "职": 2031, "边@@": 2032, "命中": 2033, "冯@@": 2034, "灾害": 2035, "符合": 2036, "严@@": 2037, "宁@@": 2038, "世纪": 2039, "眼@@": 2040, "恢复": 2041, "活": 2042, "改变": 2043, "言": 2044, "升@@": 2045, "兴": 2046, "婚@@": 2047, "朝鲜": 2048, "范@@": 2049, "照顾": 2050, "苹果": 2051, "重新": 2052, "压@@": 2053, "相信": 2054, "情绪": 2055, "监@@": 2056, "副局长": 2057, "本人": 2058, "配@@": 2059, "地铁": 2060, "倒@@": 2061, "送往": 2062, "抽@@": 2063, "规范": 2064, "爸爸": 2065, "还@@": 2066, "味": 2067, "相比": 2068, "药@@": 2069, "称@@": 2070, "上班": 2071, "因素": 2072, "久": 2073, "那个": 2074, "美元": 2075, "~": 2076, "遭到": 2077, "留下": 2078, "真": 2079, "分局": 2080, "紧@@": 2081, "同事": 2082, "月@@": 2083, "意@@": 2084, "出台": 2085, "躺": 2086, "威胁": 2087, "皮": 2088, "基地": 2089, "快@@": 2090, "盖": 2091, "打开": 2092, "衣": 2093, "股东": 2094, "较大": 2095, "手段": 2096, "志": 2097, "严格": 2098, "节目": 2099, "物品": 2100, "身亡": 2101, "阳@@": 2102, "设施": 2103, "查处": 2104, "赶紧": 2105, "刚刚": 2106, "换@@": 2107, "听@@": 2108, "31": 2109, "莫@@": 2110, "断": 2111, "护@@": 2112, "望": 2113, "应急": 2114, "坐": 2115, "独@@": 2116, "账户": 2117, "印度": 2118, "院长": 2119, "松": 2120, "杭州": 2121, "新华社": 2122, "发行": 2123, "困难": 2124, "立案": 2125, "协调": 2126, "表@@": 2127, "变": 2128, "1%": 2129, "工人": 2130, "名单": 2131, "选": 2132, "齐@@": 2133, "破": 2134, "加上": 2135, "人数": 2136, "路上": 2137, "房间": 2138, "大约": 2139, "赵": 2140, "拍摄": 2141, "一旦": 2142, "活@@": 2143, "脑@@": 2144, "荣": 2145, "处置": 2146, "发出": 2147, "抢": 2148, "管理@@": 2149, "季": 2150, "控": 2151, "交通@@": 2152, "救@@": 2153, "b": 2154, "常委": 2155, "错": 2156, "减@@": 2157, "航": 2158, "很@@": 2159, "实行": 2160, "记": 2161, "各地": 2162, "河北": 2163, "雨@@": 2164, "邓@@": 2165, "正是": 2166, "加入": 2167, "感到": 2168, "收购": 2169, "设": 2170, "青": 2171, "坐@@": 2172, "女生": 2173, "普通": 2174, "文章": 2175, "业@@": 2176, "速度": 2177, "安全@@": 2178, "相对": 2179, "游戏": 2180, "讲": 2181, "披露": 2182, "拨打": 2183, "库": 2184, "财产": 2185, "曹@@": 2186, "199@@": 2187, "℃": 2188, "丽": 2189, "别@@": 2190, "制造": 2191, "弟弟": 2192, "运行": 2193, "坐在": 2194, "彭@@": 2195, "鲁@@": 2196, "矿@@": 2197, "业主": 2198, "夫妻": 2199, "额": 2200, "赛@@": 2201, "手续": 2202, "由@@": 2203, "目的": 2204, "宇": 2205, "感@@": 2206, "江苏": 2207, "遗@@": 2208, "维护": 2209, "尤其": 2210, "视@@": 2211, "观察": 2212, "贵": 2213, "检测": 2214, "树": 2215, "蓝@@": 2216, "木": 2217, "介入": 2218, "宝": 2219, "现@@": 2220, "公务员": 2221, "并非": 2222, "怀疑": 2223, "换": 2224, "路段": 2225, "货车": 2226, "朝": 2227, "她们": 2228, "结构": 2229, "平方米": 2230, "党委": 2231, "尽@@": 2232, "湖南": 2233, "随@@": 2234, "降低": 2235, "游": 2236, "造@@": 2237, "拿到": 2238, "秀@@": 2239, "字@@": 2240, "负": 2241, "往@@": 2242, "尚未": 2243, "标@@": 2244, "从事": 2245, "料": 2246, "存@@": 2247, "四": 2248, "状况": 2249, "福": 2250, "v@@": 2251, "区@@": 2252, "升": 2253, "堂": 2254, "伤@@": 2255, "短@@": 2256, "加大": 2257, "突破": 2258, "演@@": 2259, "帮忙": 2260, "籍": 2261, "蒙@@": 2262, "至于": 2263, "嘉@@": 2264, "若": 2265, "曝光": 2266, "女友": 2267, "尸体": 2268, "欧@@": 2269, "鹏": 2270, "训练": 2271, "别": 2272, "解": 2273, "山西": 2274, "乌@@": 2275, "停止": 2276, "朝@@": 2277, "汇@@": 2278, "竟然": 2279, "■": 2280, "路边": 2281, "射": 2282, "下跌": 2283, "雨": 2284, "力量": 2285, "托@@": 2286, "延@@": 2287, "邻居": 2288, "一路": 2289, "降": 2290, "基": 2291, "节@@": 2292, "良": 2293, "牛": 2294, "创@@": 2295, "偷@@": 2296, "交": 2297, "托": 2298, "美国@@": 2299, "小于": 2300, "五": 2301, "莱@@": 2302, "之下": 2303, "首先": 2304, "投": 2305, "打击": 2306, "法庭": 2307, "发表": 2308, "肉": 2309, "5000": 2310, "未能": 2311, "车上": 2312, "经济@@": 2313, "治@@": 2314, "快速": 2315, "目": 2316, "圈": 2317, "宣传": 2318, "湖@@": 2319, "客@@": 2320, "载": 2321, "士@@": 2322, "抗@@": 2323, "一切": 2324, "冷@@": 2325, "货@@": 2326, "收费": 2327, "三年": 2328, "免费": 2329, "球@@": 2330, "胜@@": 2331, "笑": 2332, "恩@@": 2333, "交流": 2334, "第三@@": 2335, "春": 2336, "d": 2337, "样": 2338, "丁@@": 2339, "砸": 2340, "声@@": 2341, "艾@@": 2342, "20@@": 2343, "思@@": 2344, "指挥": 2345, "刚@@": 2346, "杜@@": 2347, "赛季": 2348, "拍@@": 2349, "联": 2350, "现": 2351, "避免": 2352, "西安": 2353, "纷纷": 2354, "3000": 2355, "此案": 2356, "抢@@": 2357, "断@@": 2358, "怕": 2359, "云南": 2360, "伟@@": 2361, "真正": 2362, "随即": 2363, "400": 2364, "一个月": 2365, "腿": 2366, "保证": 2367, "助攻": 2368, "简单": 2369, "殴打": 2370, "埃@@": 2371, "脱@@": 2372, "施工": 2373, "不敢": 2374, "事后": 2375, "川": 2376, "态度": 2377, "虎": 2378, "惠@@": 2379, "力度": 2380, "势": 2381, "爆料": 2382, "俱乐部": 2383, "留": 2384, "只@@": 2385, "恶@@": 2386, "失踪": 2387, "几年": 2388, "总经理": 2389, "图为": 2390, "下去": 2391, "已有": 2392, "石油": 2393, "登@@": 2394, "排名": 2395, "塔": 2396, "一度": 2397, "跳@@": 2398, "软件": 2399, "o": 2400, "45": 2401, "怀@@": 2402, "期@@": 2403, "住@@": 2404, "广告": 2405, "因涉嫌": 2406, "广西": 2407, "支": 2408, "限制": 2409, "观@@": 2410, "树@@": 2411, "比分": 2412, "采@@": 2413, "草@@": 2414, "课": 2415, "带走": 2416, "意味着": 2417, "办@@": 2418, "萨@@": 2419, "孙": 2420, "持": 2421, "夏@@": 2422, "确保": 2423, "洞": 2424, "心理": 2425, "荣@@": 2426, "形": 2427, "旁边": 2428, "医@@": 2429, "日报": 2430, "振@@": 2431, "喊": 2432, "逐渐": 2433, "佳@@": 2434, "色@@": 2435, "卫生": 2436, "m": 2437, "顶@@": 2438, "急@@": 2439, "专项": 2440, "质": 2441, "读": 2442, "工业": 2443, "大型": 2444, "收受": 2445, "紧急": 2446, "误@@": 2447, "路口": 2448, "审查": 2449, "钢@@": 2450, "罚": 2451, "伤者": 2452, "阳市": 2453, "工具": 2454, "沈@@": 2455, "传统": 2456, "名字": 2457, "据@@": 2458, "涉案": 2459, "开车": 2460, "现代": 2461, "转移": 2462, "外出": 2463, "改": 2464, "投入": 2465, "命": 2466, "章": 2467, "人群": 2468, "救治": 2469, "秀": 2470, "拖@@": 2471, "脸": 2472, "在线": 2473, "骗": 2474, "雪@@": 2475, "景区": 2476, "接近": 2477, "提前": 2478, "奇@@": 2479, "采用": 2480, "支@@": 2481, "高速公路": 2482, "右@@": 2483, "身边": 2484, "9%": 2485, "教授": 2486, "师@@": 2487, "点多": 2488, "操作": 2489, "弹@@": 2490, "依据": 2491, "尽快": 2492, "党@@": 2493, "具": 2494, "港@@": 2495, "共@@": 2496, "微": 2497, "息": 2498, "营": 2499, "消费者": 2500, "致@@": 2501, "密@@": 2502, "贴": 2503, "求@@": 2504, "钟@@": 2505, "预期": 2506, "费@@": 2507, "街道": 2508, "年前": 2509, "不了": 2510, "促进": 2511, "弱": 2512, "看来": 2513, "职业": 2514, "低于": 2515, "法官": 2516, "更是": 2517, "协会": 2518, "绝@@": 2519, "坏": 2520, "守@@": 2521, "痛": 2522, "步@@": 2523, "航@@": 2524, "跌": 2525, "端": 2526, "官@@": 2527, "最新": 2528, "锋": 2529, "守": 2530, "退休": 2531, "财经": 2532, "梁": 2533, "有点": 2534, "景@@": 2535, "士": 2536, "足": 2537, "子女": 2538, "主场": 2539, "零@@": 2540, "摩托车": 2541, "体系": 2542, "保险": 2543, "付": 2544, "似乎": 2545, "容": 2546, "麻@@": 2547, "可是": 2548, "沟通": 2549, "作案": 2550, "马上": 2551, "静@@": 2552, "海军": 2553, "自杀": 2554, "资@@": 2555, "上升": 2556, "骨@@": 2557, "核实": 2558, "继@@": 2559, "生意": 2560, "警告": 2561, "岗": 2562, "组@@": 2563, "程@@": 2564, "董@@": 2565, "整体": 2566, "全市": 2567, "居住": 2568, "r@@": 2569, "腐败": 2570, "扣": 2571, "出场": 2572, "详细": 2573, "暴雨": 2574, "矛盾": 2575, "男孩": 2576, "击": 2577, "共有": 2578, "舰": 2579, "条例": 2580, "不久": 2581, "他@@": 2582, "都市报": 2583, "团@@": 2584, "芳": 2585, "+": 2586, "不足": 2587, "记@@": 2588, "承诺": 2589, "两天": 2590, "食": 2591, "经验": 2592, "哥": 2593, "金融@@": 2594, "吃饭": 2595, "蒋@@": 2596, "共计": 2597, "理解": 2598, "必@@": 2599, "部署": 2600, "不想": 2601, "保": 2602, "村里": 2603, "考": 2604, "封@@": 2605, "纠纷": 2606, "罚款": 2607, "吨": 2608, "存": 2609, "反应": 2610, "江西": 2611, "安徽": 2612, "着@@": 2613, "驾驶员": 2614, "居@@": 2615, "昆明": 2616, "对象": 2617, "允许": 2618, "旅客": 2619, "时代": 2620, "言@@": 2621, "睡": 2622, "所在": 2623, "助@@": 2624, "足@@": 2625, "饭": 2626, "补贴": 2627, "征@@": 2628, "线@@": 2629, "梅": 2630, "15@@": 2631, "杀@@": 2632, "提": 2633, "那些": 2634, "告知": 2635, "32": 2636, "被害人": 2637, "疑似": 2638, "备@@": 2639, "禁止": 2640, "报案": 2641, "剧": 2642, "施@@": 2643, "指导": 2644, "但@@": 2645, "牛@@": 2646, "观": 2647, "职@@": 2648, "中央@@": 2649, "乱": 2650, "桥@@": 2651, "交代": 2652, "声音": 2653, "债": 2654, "最好": 2655, "冠军": 2656, "世": 2657, "每次": 2658, "队员": 2659, "知情": 2660, "义": 2661, "上市公司": 2662, "编@@": 2663, "到达": 2664, "举@@": 2665, "监狱": 2666, "冲": 2667, "一把": 2668, "效果": 2669, "毫米": 2670, "北京市": 2671, "告@@": 2672, "招生": 2673, "市委书记": 2674, "君": 2675, "调": 2676, "所谓": 2677, "红色": 2678, "速": 2679, "评@@": 2680, "唯一": 2681, "小姐": 2682, "赴": 2683, "敏": 2684, "迪": 2685, "衣@@": 2686, "叶@@": 2687, "终@@": 2688, "塞@@": 2689, "特殊": 2690, "不错": 2691, "同志": 2692, "方法": 2693, "2009": 2694, "戴": 2695, "发放": 2696, "请@@": 2697, "检@@": 2698, "变成": 2699, "印@@": 2700, "110": 2701, "声明": 2702, "忙": 2703, "总理": 2704, "伤害": 2705, "喜@@": 2706, "竞争": 2707, "批": 2708, "京@@": 2709, "放在": 2710, "玩@@": 2711, "形式": 2712, "达成": 2713, "扬": 2714, "威": 2715, "列@@": 2716, "团队": 2717, "夜": 2718, "临时": 2719, "土": 2720, "改造": 2721, "静": 2722, "便利": 2723, "33": 2724, "工厂": 2725, "搜索": 2726, "轮@@": 2727, "善@@": 2728, "公交": 2729, "跳": 2730, "公路": 2731, "国际@@": 2732, "筹@@": 2733, "火箭": 2734, "祥": 2735, "经理": 2736, "16@@": 2737, "法国": 2738, "疾病": 2739, "亲属": 2740, "原本": 2741, "当事人": 2742, "放弃": 2743, "宜@@": 2744, "组成": 2745, "栋": 2746, "泉": 2747, "等待": 2748, "庆": 2749, "防止": 2750, "娟": 2751, "挺": 2752, "勒@@": 2753, "审批": 2754, "暴@@": 2755, "联赛": 2756, "良@@": 2757, "人民检察院": 2758, "习近平": 2759, "一只": 2760, "刑事拘留": 2761, "相应": 2762, "伦": 2763, "秦@@": 2764, "佛@@": 2765, "藏": 2766, "武": 2767, "藏@@": 2768, "加快": 2769, "动物": 2770, "800": 2771, "p": 2772, "自然": 2773, "冰@@": 2774, "郑州": 2775, "秩序": 2776, "车主": 2777, "拆迁": 2778, "存款": 2779, "电脑": 2780, "雪": 2781, "老家": 2782, "14@@": 2783, "涨幅": 2784, "净@@": 2785, "感情": 2786, "宏@@": 2787, "按@@": 2788, "清理": 2789, "素": 2790, "即将": 2791, "目击者": 2792, "泽@@": 2793, "香@@": 2794, "紧张": 2795, "99": 2796, "提到": 2797, "下车": 2798, "17@@": 2799, "湾": 2800, "横@@": 2801, "航班": 2802, "井": 2803, "phone": 2804, "文物": 2805, "股@@": 2806, "湖北": 2807, "列车": 2808, "务@@": 2809, "归@@": 2810, "脚@@": 2811, "庄": 2812, "晚@@": 2813, "能见度": 2814, "杯": 2815, "n": 2816, "斤": 2817, "运输": 2818, "一事": 2819, "盗窃": 2820, "实际上": 2821, "城管": 2822, "总统": 2823, "丹": 2824, "卢@@": 2825, "原则": 2826, "确@@": 2827, "免@@": 2828, "背@@": 2829, "有所": 2830, "晚报": 2831, "w@@": 2832, "周围": 2833, "井@@": 2834, "一处": 2835, "秋@@": 2836, "当前": 2837, "故事": 2838, "互@@": 2839, "2008": 2840, "税@@": 2841, "新闻@@": 2842, "源@@": 2843, "吸毒": 2844, "应对": 2845, "烟": 2846, "发言人": 2847, "消@@": 2848, "哭": 2849, "销": 2850, "写@@": 2851, "巴": 2852, "丹@@": 2853, "在家": 2854, "团伙": 2855, "去@@": 2856, "电据": 2857, "持有": 2858, "抓@@": 2859, "军区": 2860, "g": 2861, "大会": 2862, "方便": 2863, "每日": 2864, "37": 2865, "在内": 2866, "回复": 2867, "异常": 2868, "领": 2869, "等@@": 2870, "中方": 2871, "该案": 2872, "出口": 2873, "拿出": 2874, "房产": 2875, "常": 2876, "便@@": 2877, "高校": 2878, "顺": 2879, "协商": 2880, "获@@": 2881, "海外": 2882, "折@@": 2883, "落后": 2884, "吕@@": 2885, "雾": 2886, "夜@@": 2887, "设立": 2888, "贝@@": 2889, "户外活动": 2890, "搞": 2891, "一块": 2892, "何": 2893, "校长": 2894, "烧@@": 2895, "听说": 2896, "枪@@": 2897, "无奈": 2898, "渠道": 2899, "一步": 2900, "肇事": 2901, "妇女": 2902, "戴@@": 2903, "涉@@": 2904, "讨论": 2905, "夫妇": 2906, "射@@": 2907, "发布会": 2908, "骨": 2909, "稳@@": 2910, "尾@@": 2911, "环": 2912, "顺利": 2913, "祖@@": 2914, "36": 2915, "洋": 2916, "华商报": 2917, "高铁": 2918, "挂": 2919, "必要": 2920, "汪@@": 2921, "南方": 2922, "导": 2923, "线路": 2924, "新疆": 2925, "对外": 2926, "今@@": 2927, "即使": 2928, "执@@": 2929, "另@@": 2930, "砍": 2931, "进展": 2932, "白色": 2933, "瓦@@": 2934, "突@@": 2935, "垃圾": 2936, "沉@@": 2937, "讲@@": 2938, "劳@@": 2939, "当中": 2940, "开放": 2941, "创业": 2942, "母@@": 2943, "指标": 2944, "回答": 2945, "时期": 2946, "视": 2947, "发挥": 2948, "南海": 2949, "秘书长": 2950, "唐": 2951, "试图": 2952, "事业": 2953, "俊@@": 2954, "东莞": 2955, "父": 2956, "姚@@": 2957, "休息": 2958, "故意": 2959, "伯@@": 2960, "长沙": 2961, "利率": 2962, "修": 2963, "索@@": 2964, "多岁": 2965, "影@@": 2966, "雅@@": 2967, "通道": 2968, "管理局": 2969, "部@@": 2970, "新闻网": 2971, "密切": 2972, "十": 2973, "煤@@": 2974, "受害人": 2975, "果@@": 2976, "船@@": 2977, "姆": 2978, "行政@@": 2979, "迷@@": 2980, "指控": 2981, "为此": 2982, "袁@@": 2983, "混@@": 2984, "画": 2985, "险": 2986, "每月": 2987, "盛@@": 2988, "就要": 2989, "乡@@": 2990, "多家": 2991, "账": 2992, "东方": 2993, "富": 2994, "厘米": 2995, "月底": 2996, "种@@": 2997, "容@@": 2998, "政": 2999, "超市": 3000, "玻璃": 3001, "墓": 3002, "黄某": 3003, "鼓励": 3004, "地震": 3005, "青年": 3006, "协助": 3007, "万美元": 3008, "l": 3009, "资格": 3010, "in@@": 3011, "锁": 3012, "当然": 3013, "安装": 3014, "合理": 3015, "简@@": 3016, "意义": 3017, "打算": 3018, "俩": 3019, "大幅": 3020, "智@@": 3021, "证监会": 3022, "德国": 3023, "骂": 3024, "我市": 3025, "诈骗": 3026, "觉": 3027, "是不是": 3028, "头部": 3029, "占@@": 3030, "30@@": 3031, "认@@": 3032, "想到": 3033, "展@@": 3034, "掌握": 3035, "人民政府": 3036, "公安分局": 3037, "完@@": 3038, "库@@": 3039, "中共": 3040, "培训": 3041, "史": 3042, "护": 3043, "症": 3044, "年代": 3045, "哥哥": 3046, "心里": 3047, "市区": 3048, "激@@": 3049, "呼@@": 3050, "细@@": 3051, "将会": 3052, "自称": 3053, "大学生": 3054, "喝@@": 3055, "陆续": 3056, "注册": 3057, "查询": 3058, "内地": 3059, "评估": 3060, "忠@@": 3061, "商业": 3062, "道歉": 3063, "短信": 3064, "宣@@": 3065, "叶": 3066, "关键": 3067, "博": 3068, "吸@@": 3069, "导弹": 3070, "形@@": 3071, "x@@": 3072, "音": 3073, "暂时": 3074, "攻击": 3075, "商品": 3076, "苦@@": 3077, "党组": 3078, "治理": 3079, "墙": 3080, "理由": 3081, "请求": 3082, "丰@@": 3083, "宿舍": 3084, "顾@@": 3085, "去世": 3086, "党委书记": 3087, "较@@": 3088, "陕西": 3089, "驻": 3090, "男友": 3091, "市场@@": 3092, "既": 3093, "菲律宾": 3094, "黑色": 3095, "局@@": 3096, "弹": 3097, "访": 3098, "运动": 3099, "瓶": 3100, "人大常委会": 3101, "新华网": 3102, "洲": 3103, "求": 3104, "纪律": 3105, "落马": 3106, "设置": 3107, "不愿": 3108, "背后": 3109, "退": 3110, "集": 3111, "借": 3112, "返回": 3113, "广东省": 3114, "上面": 3115, "差距": 3116, "案@@": 3117, "次@@": 3118, "震@@": 3119, "第三": 3120, "想要": 3121, "申@@": 3122, "亩": 3123, "尚": 3124, "自由": 3125, "康": 3126, "本次": 3127, "支出": 3128, "半": 3129, "增速": 3130, "足球": 3131, "核心": 3132, "甲": 3133, "攻@@": 3134, "社会@@": 3135, "错@@": 3136, "起诉": 3137, "岳@@": 3138, "散@@": 3139, "全力": 3140, "昨晚": 3141, "妈": 3142, "第二天": 3143, "600": 3144, "18@@": 3145, "难以": 3146, "毒": 3147, "限@@": 3148, "看见": 3149, "而言": 3150, "母": 3151, "班@@": 3152, "抢劫": 3153, "负@@": 3154, "计算": 3155, "禁@@": 3156, "一部分": 3157, "贵@@": 3158, "牵@@": 3159, "谈@@": 3160, "词": 3161, "环@@": 3162, "甲@@": 3163, "之中": 3164, "照@@": 3165, "权力": 3166, "集体": 3167, "多人": 3168, "咨询": 3169, "财@@": 3170, "08": 3171, "彩": 3172, "春节": 3173, "妹妹": 3174, "充@@": 3175, "作品": 3176, "笔": 3177, "齐": 3178, "休@@": 3179, "表明": 3180, "被困": 3181, "凤@@": 3182, "央视": 3183, "体育@@": 3184, "评论": 3185, "决@@": 3186, "质@@": 3187, "累计": 3188, "盖@@": 3189, "司法": 3190, "市政府": 3191, "伦@@": 3192, "失去": 3193, "吸引": 3194, "老婆": 3195, "气温": 3196, "济南": 3197, "乘坐": 3198, "接触": 3199, "凯@@": 3200, "传播": 3201, "义@@": 3202, "降@@": 3203, "工地": 3204, "中院": 3205, "99.@@": 3206, "婚": 3207, "这家": 3208, "岗位": 3209, "结合": 3210, "黄金": 3211, "菲": 3212, "抓捕": 3213, "骑": 3214, "利润": 3215, "股权": 3216, "务": 3217, "出席": 3218, "否认": 3219, "题": 3220, "索": 3221, "万人": 3222, "灵@@": 3223, "近年来": 3224, "岭": 3225, "专案组": 3226, "环保": 3227, "四个": 3228, "外国": 3229, "自身": 3230, "诉讼": 3231, "纸": 3232, "神": 3233, "姐姐": 3234, "维持": 3235, "佳": 3236, "大风": 3237, "j@@": 3238, "苦": 3239, "场所": 3240, "不满": 3241, "奥": 3242, "忠": 3243, "恩": 3244, "穆@@": 3245, "一致": 3246, "升级": 3247, "顿": 3248, "救助": 3249, "商报": 3250, "婴儿": 3251, "驾车": 3252, "航空": 3253, "火灾": 3254, "之外": 3255, "应用": 3256, "38": 3257, "和平": 3258, "针": 3259, "门前": 3260, "众多": 3261, "全省": 3262, "彩@@": 3263, "宾馆": 3264, "玉": 3265, "划@@": 3266, "高温": 3267, "不够": 3268, "贵州": 3269, "间@@": 3270, "肖@@": 3271, "福建": 3272, "说话": 3273, "01": 3274, "池": 3275, "手中": 3276, "领导人": 3277, "魏@@": 3278, "切": 3279, "科学": 3280, "鲜@@": 3281, "导@@": 3282, "肉@@": 3283, "不见": 3284, "开发商": 3285, "赶@@": 3286, "始终": 3287, "军事": 3288, "闹": 3289, "挡": 3290, "看着": 3291, "仁@@": 3292, "板块": 3293, "挂@@": 3294, "废@@": 3295, "电视": 3296, "姜@@": 3297, "首": 3298, "营@@": 3299, "高达": 3300, "巡视组": 3301, "沈阳": 3302, "山区": 3303, "圣@@": 3304, "麦@@": 3305, "示@@": 3306, "举": 3307, "争议": 3308, "曼": 3309, "停车": 3310, "异@@": 3311, "寻@@": 3312, "上半年": 3313, "看看": 3314, "农民": 3315, "34": 3316, "病人": 3317, "更好": 3318, "亦": 3319, "大门": 3320, "找@@": 3321, "享受": 3322, "日子": 3323, "拿下": 3324, "配": 3325, "独立": 3326, "例": 3327, "y": 3328, "售": 3329, "进攻": 3330, "材": 3331, "话@@": 3332, "娜": 3333, "批评": 3334, "试点": 3335, "响": 3336, "债务": 3337, "创业板": 3338, "贸易": 3339, "露": 3340, "扫@@": 3341, "柳@@": 3342, "状": 3343, "07": 3344, "户@@": 3345, "蔡@@": 3346, "委@@": 3347, "餐": 3348, "装备": 3349, "委托": 3350, "隐@@": 3351, "依@@": 3352, "增": 3353, "央行": 3354, "亚洲": 3355, "助": 3356, "奶奶": 3357, "店@@": 3358, "载@@": 3359, "大概": 3360, "判断": 3361, "地产": 3362, "勒": 3363, "就业": 3364, "宇@@": 3365, "隆@@": 3366, "急": 3367, "一句": 3368, "附@@": 3369, "十年": 3370, "地面": 3371, "人家": 3372, "桂@@": 3373, "得手": 3374, "暂停": 3375, "做法": 3376, "这时": 3377, "准": 3378, "大道": 3379, "反对": 3380, "不管": 3381, "探@@": 3382, "泰": 3383, "12@@": 3384, "计@@": 3385, "梦": 3386, "银": 3387, "锦@@": 3388, "仅@@": 3389, "徐": 3390, "民众": 3391, "严": 3392, "百分点": 3393, "宗@@": 3394, "05": 3395, "拿@@": 3396, "胜利": 3397, "走访": 3398, "潜@@": 3399, "敬@@": 3400, "破坏": 3401, "易": 3402, "制作": 3403, "时报": 3404, "背景": 3405, "评价": 3406, "教育局": 3407, "前后": 3408, "车站": 3409, "东部": 3410, "欧洲": 3411, "维": 3412, "55": 3413, "逐步": 3414, "自行车": 3415, "旁": 3416, "年度": 3417, "诚": 3418, "世界@@": 3419, "众": 3420, "两位": 3421, "住宅": 3422, "县委": 3423, "山市": 3424, "潘@@": 3425, "虚@@": 3426, "改善": 3427, "结": 3428, "坚@@": 3429, "环节": 3430, "丰": 3431, "至@@": 3432, "感谢": 3433, "年级": 3434, "外面": 3435, "桶": 3436, "竟": 3437, "钟": 3438, "艘": 3439, "财政": 3440, "哪里": 3441, "突出": 3442, "族": 3443, "暴力": 3444, "供": 3445, "朱": 3446, "无人": 3447, "政协": 3448, "自治区": 3449, "据介绍": 3450, "州@@": 3451, "上前": 3452, "整改": 3453, "编辑": 3454, "服务@@": 3455, "尚@@": 3456, "成交": 3457, "密": 3458, "作战": 3459, "潮": 3460, "虎@@": 3461, "药品": 3462, "人才": 3463, "柱": 3464, "旧": 3465, "孟@@": 3466, "an@@": 3467, "追究": 3468, "讨@@": 3469, "昌": 3470, "公共": 3471, "是从": 3472, "一项": 3473, "默@@": 3474, "年初": 3475, "谈判": 3476, "弗@@": 3477, "灯": 3478, "半年": 3479, "帕@@": 3480, "昌@@": 3481, "坚决": 3482, "截图": 3483, "中队": 3484, "鞋": 3485, "形象": 3486, "角度": 3487, "中间": 3488, "相": 3489, "症状": 3490, "信息@@": 3491, "盛": 3492, "剧@@": 3493, "快报": 3494, "股价": 3495, "兵@@": 3496, "强奸": 3497, "围观": 3498, "底@@": 3499, "婚姻": 3500, "相当": 3501, "主体": 3502, "吊@@": 3503, "界@@": 3504, "钢": 3505, "第十@@": 3506, "境外": 3507, "出售": 3508, "检察机关": 3509, "瓦": 3510, "境内": 3511, "角@@": 3512, "帅": 3513, "愿": 3514, "补偿": 3515, "事项": 3516, "冲突": 3517, "行人": 3518, "杀人": 3519, "限": 3520, "河南省": 3521, "南部": 3522, "数字": 3523, "生育": 3524, "er@@": 3525, "×": 3526, "今后": 3527, "架@@": 3528, "战争": 3529, "庭审": 3530, "58": 3531, "多位": 3532, "溪": 3533, "站@@": 3534, "思": 3535, "双": 3536, "可能性": 3537, "其余": 3538, "本来": 3539, "摆@@": 3540, "诺@@": 3541, "付@@": 3542, "被告": 3543, "购@@": 3544, "归": 3545, "国外": 3546, "150": 3547, "第@@": 3548, "贾@@": 3549, "野@@": 3550, "复杂": 3551, "创": 3552, "熊@@": 3553, "高度": 3554, "受贿罪": 3555, "一批": 3556, "撤@@": 3557, "查明": 3558, "估计": 3559, "摇@@": 3560, "ar@@": 3561, "证券@@": 3562, "怀孕": 3563, "往往": 3564, "排除": 3565, "一审": 3566, "一系列": 3567, "跌@@": 3568, "48": 3569, "皇马": 3570, "录": 3571, "监测": 3572, "街@@": 3573, "隆": 3574, "剑": 3575, "福州": 3576, "泰国": 3577, "扎@@": 3578, "杰@@": 3579, "能源": 3580, "事实上": 3581, "甘@@": 3582, "输@@": 3583, "些": 3584, "几名": 3585, "价@@": 3586, "见面": 3587, "王女士": 3588, "预算": 3589, "迁@@": 3590, "宗": 3591, "多元": 3592, "昨天下午": 3593, "一段时间": 3594, "再度": 3595, "qq": 3596, "珠@@": 3597, "很少": 3598, "建成": 3599, "历@@": 3600, "机动车": 3601, "摩@@": 3602, "还会": 3603, "一件": 3604, "称为": 3605, "众@@": 3606, "搬@@": 3607, "一半": 3608, "备": 3609, "军队": 3610, "猪": 3611, "小组": 3612, "现实": 3613, "厦门": 3614, "公": 3615, "细节": 3616, "投诉": 3617, "为主": 3618, "醒": 3619, "诊断": 3620, "涉事": 3621, "除@@": 3622, "反": 3623, "队伍": 3624, "音@@": 3625, "群@@": 3626, "规@@": 3627, "前来": 3628, "烈": 3629, "趋势": 3630, "究竟": 3631, "这件": 3632, "长江": 3633, "条@@": 3634, "公积金": 3635, "持@@": 3636, "彩票": 3637, "那里": 3638, "呼吸": 3639, "越南": 3640, "宫": 3641, "根@@": 3642, "29@@": 3643, "磊": 3644, "签订": 3645, "内蒙古": 3646, "屋": 3647, "满足": 3648, "飞行": 3649, "65": 3650, "司": 3651, "聚@@": 3652, "197@@": 3653, "2007": 3654, "签": 3655, "若@@": 3656, "一段": 3657, "兼": 3658, "得分": 3659, "跌幅": 3660, "尽": 3661, "人均": 3662, "x": 3663, "塞": 3664, "没收": 3665, "旧@@": 3666, "万余元": 3667, "哭@@": 3668, "总局": 3669, "对手": 3670, "目@@": 3671, "健": 3672, "十八": 3673, "电子": 3674, "中级": 3675, "菜@@": 3676, "供述": 3677, "后面": 3678, "交给": 3679, "良好": 3680, "草": 3681, "储@@": 3682, "出事": 3683, "家住": 3684, "普": 3685, "文明": 3686, "农业": 3687, "协@@": 3688, "养老": 3689, "幸福": 3690, "厚": 3691, "宣判": 3692, "武器": 3693, "警车": 3694, "发改委": 3695, "专车": 3696, "两家": 3697, "诉": 3698, "最佳": 3699, "欲": 3700, "经查": 3701, "厕所": 3702, "银行卡": 3703, "招": 3704, "跨@@": 3705, "财政@@": 3706, "冒@@": 3707, "园@@": 3708, "撞@@": 3709, "本报记者": 3710, "凡": 3711, "技术@@": 3712, "菲@@": 3713, "俊": 3714, "揭@@": 3715, "判": 3716, "刀@@": 3717, "公安部": 3718, "滩": 3719, "史@@": 3720, "萍": 3721, "袋": 3722, "念": 3723, "反腐": 3724, "鱼@@": 3725, "一周": 3726, "精神@@": 3727, "各类": 3728, "逃": 3729, "陪": 3730, "一是": 3731, "关心": 3732, "候@@": 3733, "电动车": 3734, "宣传部": 3735, "侵@@": 3736, "杆": 3737, "邀请": 3738, "孔@@": 3739, "蒂": 3740, "一幕": 3741, "片@@": 3742, "引导": 3743, "收益": 3744, "实在": 3745, "患": 3746, "刑@@": 3747, "工作@@": 3748, "射门": 3749, "恒大": 3750, "玲": 3751, "准@@": 3752, "安倍": 3753, "防雷": 3754, "外界": 3755, "日晚": 3756, "它们": 3757, "老公": 3758, "真实": 3759, "提交": 3760, "名义": 3761, "功@@": 3762, "标": 3763, "辖区": 3764, "控股": 3765, "穿着": 3766, "画@@": 3767, "岩": 3768, "单独": 3769, "遗体": 3770, "基层": 3771, "晋@@": 3772, "曲@@": 3773, "纪": 3774, "人物": 3775, "本报": 3776, "兄弟": 3777, "景": 3778, "年轻人": 3779, "贡献": 3780, "霞": 3781, "表达": 3782, "丁": 3783, "霾": 3784, "圆@@": 3785, "个人@@": 3786, "演": 3787, "票@@": 3788, "出门": 3789, "深入": 3790, "礼@@": 3791, "检": 3792, "强行": 3793, "户籍": 3794, "仓": 3795, "左侧": 3796, "收取": 3797, "整治": 3798, "检验": 3799, "刺@@": 3800, "外地": 3801, "习惯": 3802, "乱@@": 3803, "39@@": 3804, "级@@": 3805, "谷": 3806, "焦@@": 3807, "移送": 3808, "业绩": 3809, "盗@@": 3810, "遂": 3811, "坑": 3812, "39": 3813, "抢救无效": 3814, "令人": 3815, "浩": 3816, "触@@": 3817, "租": 3818, "广泛": 3819, "兰州": 3820, "从而": 3821, "谢": 3822, "一套": 3823, "纸@@": 3824, "名为": 3825, "帮@@": 3826, "北部": 3827, "观众": 3828, "贴@@": 3829, "艺@@": 3830, "坦@@": 3831, "成长": 3832, "算@@": 3833, "举办": 3834, "遇": 3835, "做到": 3836, "规则": 3837, "西部": 3838, "上诉": 3839, "院@@": 3840, "动作": 3841, "中央纪委": 3842, "火车站": 3843, "床": 3844, "这份": 3845, "加盟": 3846, "眼睛": 3847, "06": 3848, "这起": 3849, "缺乏": 3850, "展": 3851, "求助": 3852, "想法": 3853, "海南": 3854, "社@@": 3855, "沟": 3856, "44": 3857, "农": 3858, "地下": 3859, "合法": 3860, "启@@": 3861, "号线": 3862, "合并": 3863, "大连": 3864, "摄@@": 3865, "塘": 3866, "一对": 3867, "学历": 3868, "杂@@": 3869, "杨某": 3870, "县@@": 3871, "到位": 3872, "面前": 3873, "上网": 3874, "不明": 3875, "铁": 3876, "待@@": 3877, "生产@@": 3878, "卫生@@": 3879, "分子": 3880, "党组书记": 3881, "商场": 3882, "隔": 3883, "打出": 3884, "02": 3885, "尸": 3886, "印": 3887, "扣@@": 3888, "害怕": 3889, "欧元": 3890, "不停": 3891, "接下来": 3892, "惨@@": 3893, "租@@": 3894, "重视": 3895, "广大": 3896, "稿": 3897, "上学": 3898, "进去": 3899, "访问": 3900, "展示": 3901, "语@@": 3902, "场@@": 3903, "讲述": 3904, "车祸": 3905, "剩下": 3906, "普遍": 3907, "交通事故": 3908, "宽": 3909, "养老金": 3910, "k": 3911, "背": 3912, "42": 3913, "固@@": 3914, "湘@@": 3915, "省级": 3916, "感染": 3917, "澳大利亚": 3918, "本身": 3919, "毅": 3920, "逃@@": 3921, "约@@": 3922, "明星": 3923, "爆@@": 3924, "客车": 3925, "论@@": 3926, "智": 3927, "操@@": 3928, "即@@": 3929, "00": 3930, "旗下": 3931, "卷": 3932, "始@@": 3933, "试": 3934, "违@@": 3935, "权利": 3936, "婆婆": 3937, "有着": 3938, "仪式": 3939, "虚假": 3940, "男性": 3941, "公民": 3942, "大妈": 3943, "度@@": 3944, "分析师": 3945, "第四@@": 3946, "跟着": 3947, "攻": 3948, "云南省": 3949, "医": 3950, "释放": 3951, "袭击": 3952, "携带": 3953, "童@@": 3954, "阳县": 3955, "立方米": 3956, "杀害": 3957, "散": 3958, "测试": 3959, "争@@": 3960, "支队": 3961, "上来": 3962, "审": 3963, "服@@": 3964, "危@@": 3965, "具备": 3966, "暂@@": 3967, "201@@": 3968, "谋@@": 3969, "故": 3970, "抵@@": 3971, "雅": 3972, "三人": 3973, "播": 3974, "赤@@": 3975, "迹": 3976, "山西省": 3977, "最低": 3978, "将@@": 3979, "排查": 3980, "亲": 3981, "购": 3982, "户口": 3983, "09": 3984, "半个": 3985, "驻@@": 3986, "桑@@": 3987, "羊@@": 3988, "证@@": 3989, "品@@": 3990, "不用": 3991, "途中": 3992, "叫@@": 3993, "征": 3994, "属@@": 3995, "右侧": 3996, "季@@": 3997, "一片": 3998, "阵@@": 3999, "紧": 4000, "京": 4001, "雄": 4002, "呼吁": 4003, "穿@@": 4004, "与其": 4005, "暗@@": 4006, "自主": 4007, "吴某": 4008, "挑战": 4009, "姓名": 4010, "审@@": 4011, "时任": 4012, "奖@@": 4013, "档": 4014, "尽量避免": 4015, "友@@": 4016, "纵@@": 4017, "采购": 4018, "述": 4019, "物业": 4020, "沙": 4021, "进口": 4022, "痛@@": 4023, "及@@": 4024, "佩@@": 4025, "避@@": 4026, "公斤": 4027, "竞@@": 4028, "现有": 4029, "拆@@": 4030, "新增": 4031, "扎": 4032, "舞@@": 4033, "论坛": 4034, "脑": 4035, "略": 4036, "舞": 4037, "邮@@": 4038, "迫@@": 4039, "温州": 4040, "锁定": 4041, "炮": 4042, "审计": 4043, "币": 4044, "爬": 4045, "纪录": 4046, "41": 4047, "有没有": 4048, "搜救": 4049, "的确": 4050, "寄@@": 4051, "多万元": 4052, "湖南省": 4053, "俄@@": 4054, "接待": 4055, "68": 4056, "跟@@": 4057, "猛@@": 4058, "民族": 4059, "营业": 4060, "房价": 4061, "追": 4062, "认真": 4063, "上海@@": 4064, "艺": 4065, "售@@": 4066, "川@@": 4067, "出行": 4068, "不知": 4069, "大陆": 4070, "反而": 4071, "等于": 4072, "阴@@": 4073, "头球": 4074, "稳": 4075, "生态": 4076, "多数": 4077, "幕": 4078, "体现": 4079, "陶@@": 4080, "病情": 4081, "51": 4082, "饭@@": 4083, "害": 4084, "鼓@@": 4085, "习": 4086, "古": 4087, "52": 4088, "年来": 4089, "胡": 4090, "死刑": 4091, "中国队": 4092, "危害": 4093, "弟": 4094, "url": 4095, "凯": 4096, "省份": 4097, "通讯员": 4098, "韩": 4099, "宝宝": 4100, "屋@@": 4101, "歌": 4102, "几次": 4103, "厚@@": 4104, "稀@@": 4105, "月初": 4106, "积@@": 4107, "烧": 4108, "财富": 4109, "地位": 4110, "有时": 4111, "官网": 4112, "坡": 4113, "亏损": 4114, "莉": 4115, "人民@@": 4116, "结冰": 4117, "汉": 4118, "人民网": 4119, "果": 4120, "强化": 4121, "转发": 4122, "百": 4123, "耳@@": 4124, "47": 4125, "丢": 4126, "充分": 4127, "赵某": 4128, "有个": 4129, "巡@@": 4130, "伴有": 4131, "二是": 4132, "高管": 4133, "赞@@": 4134, "提起": 4135, "薪": 4136, "都@@": 4137, "2006": 4138, "04": 4139, "套@@": 4140, "主义": 4141, "对话": 4142, "毛": 4143, "育@@": 4144, "靠@@": 4145, "剂": 4146, "端@@": 4147, "危机": 4148, "200@@": 4149, "客场": 4150, "大多": 4151, "腾讯": 4152, "88": 4153, "纪@@": 4154, "强烈": 4155, "洪": 4156, "思想": 4157, "4000": 4158, "激动": 4159, "一带": 4160, "迎来": 4161, "电子@@": 4162, "扬@@": 4163, "较为": 4164, "亲戚": 4165, "码": 4166, "补": 4167, "浦@@": 4168, "寺": 4169, "辽宁": 4170, "编": 4171, "粉": 4172, "蒂@@": 4173, "察@@": 4174, "犬": 4175, "霍@@": 4176, "知@@": 4177, "留在": 4178, "仪": 4179, "驾": 4180, "洲@@": 4181, "海上": 4182, "转型": 4183, "住户": 4184, "错误": 4185, "碎": 4186, "03": 4187, "观点": 4188, "四川省": 4189, "议@@": 4190, "琳": 4191, "香": 4192, "宽@@": 4193, "签署": 4194, "笔@@": 4195, "大于": 4196, "固定": 4197, "第一个": 4198, "系@@": 4199, "青岛": 4200, "或许": 4201, "恋": 4202, "婷": 4203, "有望": 4204, "后果": 4205, "情节": 4206, "责": 4207, "地说": 4208, "尿@@": 4209, "聊天": 4210, "希腊": 4211, "高级": 4212, "录取": 4213, "业内人士": 4214, "柏@@": 4215, "各项": 4216, "导演": 4217, "粉丝": 4218, "冬@@": 4219, "抵达": 4220, "安置": 4221, "增强": 4222, "女人": 4223, "乔@@": 4224, "财物": 4225, "鸡@@": 4226, "恒@@": 4227, "希@@": 4228, "少林寺": 4229, "司法@@": 4230, "控@@": 4231, "43": 4232, "下滑": 4233, "闹@@": 4234, "电视台": 4235, "流量": 4236, "韦@@": 4237, "论": 4238, "纳入": 4239, "移@@": 4240, "军事@@": 4241, "灵": 4242, "河北省": 4243, "诚@@": 4244, "一共": 4245, "56": 4246, "显得": 4247, "持刀": 4248, "覆盖": 4249, "六": 4250, "抓住": 4251, "歌@@": 4252, "广州市": 4253, "13@@": 4254, "矿": 4255, "议": 4256, "罪@@": 4257, "商业@@": 4258, "白天": 4259, "车子": 4260, "在于": 4261, "折": 4262, "孤@@": 4263, "床@@": 4264, "财新": 4265, "刷": 4266, "这笔": 4267, "琴": 4268, "周末": 4269, "一看": 4270, "勤": 4271, "49": 4272, "700": 4273, "显然": 4274, "拆除": 4275, "课@@": 4276, "造": 4277, "司法机关": 4278, "航母": 4279, "记得": 4280, "氏": 4281, "46": 4282, "队长": 4283, "进球": 4284, "辛@@": 4285, "李先生": 4286, "邵@@": 4287, "与此同时": 4288, "100.@@": 4289, "号@@": 4290, "否则": 4291, "印象": 4292, "渡": 4293, "保险@@": 4294, "起火": 4295, "五年": 4296, "失误": 4297, "别墅": 4298, "望@@": 4299, "审核": 4300, "人生": 4301, "颜@@": 4302, "胸@@": 4303, "民间": 4304, "短时": 4305, "不让": 4306, "续@@": 4307, "计": 4308, "一方面": 4309, "捕@@": 4310, "绿@@": 4311, "著名": 4312, "章@@": 4313, "陵": 4314, "犯@@": 4315, "时刻": 4316, "文化@@": 4317, "缴纳": 4318, "出具": 4319, "透@@": 4320, "慢慢": 4321, "病毒": 4322, "相继": 4323, "滑@@": 4324, "变得": 4325, "洋@@": 4326, "案发": 4327, "大楼": 4328, "95": 4329, "信心": 4330, "券商": 4331, "铜@@": 4332, "艳": 4333, "熟悉": 4334, "曲": 4335, "对面": 4336, "一季度": 4337, "关闭": 4338, "替补": 4339, "10.@@": 4340, "自家": 4341, "吉": 4342, "王先生": 4343, "大爷": 4344, "中国共产党": 4345, "光明网": 4346, "画面": 4347, "台风": 4348, "创造": 4349, "镜": 4350, "欢迎": 4351, "仅仅": 4352, "中毒": 4353, "装修": 4354, "江西省": 4355, "效": 4356, "被盗": 4357, "大众": 4358, "消防官兵": 4359, "履行": 4360, "唱": 4361, "多处": 4362, "告": 4363, "人大代表": 4364, "第二次": 4365, "喷@@": 4366, "沿@@": 4367, "该校": 4368, "缺@@": 4369, "中纪委": 4370, "ch@@": 4371, "习@@": 4372, "昆@@": 4373, "使得": 4374, "沃@@": 4375, "季度": 4376, "高中": 4377, "福利": 4378, "一声": 4379, "各级": 4380, "庭": 4381, "姐": 4382, "录像": 4383, "深圳市": 4384, "粉@@": 4385, "拟": 4386, "淮@@": 4387, "淡@@": 4388, "液": 4389, "失联": 4390, "花费": 4391, "刺": 4392, "温": 4393, "期待": 4394, "致电": 4395, "洁": 4396, "插@@": 4397, "男人": 4398, "合肥": 4399, "瑞": 4400, "雄@@": 4401, "宋": 4402, "失": 4403, "差@@": 4404, "逃跑": 4405, "象": 4406, "事业单位": 4407, "授权": 4408, "研@@": 4409, "燕": 4410, "累": 4411, "与@@": 4412, "开通": 4413, "看守所": 4414, "睡觉": 4415, "题@@": 4416, "只好": 4417, "案例": 4418, "继": 4419, "公安@@": 4420, "购物": 4421, "大规模": 4422, "姑娘": 4423, "带领": 4424, "免": 4425, "显@@": 4426, "平安": 4427, "待遇": 4428, "合格": 4429, "激烈": 4430, "首席": 4431, "不住": 4432, "总是": 4433, "不得不": 4434, "梦@@": 4435, "总体": 4436, "裸@@": 4437, "财": 4438, "爱心": 4439, "企": 4440, "羊": 4441, "损害": 4442, "首发": 4443, "群体": 4444, "焦点": 4445, "新区": 4446, "爷爷": 4447, "●": 4448, "证件": 4449, "侯@@": 4450, "值得": 4451, "义务": 4452, "网络@@": 4453, "小伙": 4454, "几十@@": 4455, "百度": 4456, "广": 4457, "涉": 4458, "乘@@": 4459, "赚": 4460, "益@@": 4461, "调解": 4462, "57": 4463, "这场": 4464, "救护车": 4465, "邱@@": 4466, "推荐": 4467, "劝": 4468, "市值": 4469, "刺激": 4470, "空中": 4471, "快递": 4472, "缺": 4473, "戏": 4474, "75": 4475, "款@@": 4476, "2005": 4477, "功": 4478, "强制": 4479, "摸": 4480, "岸": 4481, "示": 4482, "贷": 4483, "76": 4484, "总额": 4485, "墓@@": 4486, "急救": 4487, "略@@": 4488, "不上": 4489, "官兵": 4490, "任职": 4491, "姓@@": 4492, "旗": 4493, "or@@": 4494, "崔@@": 4495, "54": 4496, "骗@@": 4497, "闻": 4498, "孔": 4499, "公共@@": 4500, "高于": 4501, "喜": 4502, "燕@@": 4503, "巡逻": 4504, "岛@@": 4505, "山县": 4506, "住院": 4507, "之所以": 4508, "派@@": 4509, "研发": 4510, "审议": 4511, "京津冀": 4512, "繁@@": 4513, "量@@": 4514, "挑@@": 4515, "受理": 4516, "另一方面": 4517, "形势": 4518, "笑@@": 4519, "泽": 4520, "偷": 4521, "体验": 4522, "段@@": 4523, "立刻": 4524, "影": 4525, "三名": 4526, "儿@@": 4527, "事宜": 4528, "研究生": 4529, "黎@@": 4530, "朋友圈": 4531, "f": 4532, "85": 4533, "哪些": 4534, "久@@": 4535, "不幸": 4536, "拍卖": 4537, "坤": 4538, "轻": 4539, "总部": 4540, "值班": 4541, "席": 4542, "出发": 4543, "态": 4544, "音乐": 4545, "熟@@": 4546, "睡@@": 4547, "晒": 4548, "整合": 4549, "很难": 4550, "隧道": 4551, "直": 4552, "性质": 4553, "早已": 4554, "坪": 4555, "碑": 4556, "提示": 4557, "斗": 4558, "描述": 4559, "调研": 4560, "脖子": 4561, "晨报": 4562, "戏@@": 4563, "劳动@@": 4564, "命@@": 4565, "俗": 4566, "浮@@": 4567, "返@@": 4568, "谋取": 4569, "李女士": 4570, "曼联": 4571, "浩@@": 4572, "党内": 4573, "礼": 4574, "右": 4575, "环境@@": 4576, "普通@@": 4577, "分手": 4578, "周年": 4579, "护士": 4580, "截@@": 4581, "病房": 4582, "电力": 4583, "谋": 4584, "法规": 4585, "需@@": 4586, "押@@": 4587, "亭": 4588, "一线": 4589, "大多数": 4590, "打人": 4591, "怎样": 4592, "陷入": 4593, "一座": 4594, "逮捕": 4595, "妇@@": 4596, "给出": 4597, "海域": 4598, "硬@@": 4599, "退出": 4600, "联合@@": 4601, "走进": 4602, "脸@@": 4603, "消失": 4604, "邹@@": 4605, "窗户": 4606, "置@@": 4607, "七": 4608, "撤销": 4609, "跑@@": 4610, "uber": 4611, "封": 4612, "胎": 4613, "欣": 4614, "修改": 4615, "设@@": 4616, "系列": 4617, "府": 4618, "难度": 4619, "境": 4620, "疑@@": 4621, "停车场": 4622, "炎": 4623, "猜测": 4624, "培@@": 4625, "岩@@": 4626, "盐@@": 4627, "左": 4628, "然@@": 4629, "狂@@": 4630, "翻": 4631, "带到": 4632, "巴萨": 4633, "东北": 4634, "掉@@": 4635, "通行": 4636, "燃@@": 4637, "物流": 4638, "登": 4639, "楼下": 4640, "q@@": 4641, "乡镇": 4642, "逼@@": 4643, "53": 4644, "犯罪事实": 4645, "扑": 4646, "典型": 4647, "彻底": 4648, "奖励": 4649, "尾": 4650, "相同": 4651, "供应": 4652, "立案侦查": 4653, "报名": 4654, "感受": 4655, "幅": 4656, "v": 4657, "通信": 4658, "迎@@": 4659, "十几@@": 4660, "山东省": 4661, "好好": 4662, "查获": 4663, "名叫": 4664, "投中": 4665, "拜@@": 4666, "人大": 4667, "制服": 4668, "挥@@": 4669, "短": 4670, "三次": 4671, "冷": 4672, "珍": 4673, "啥": 4674, "围": 4675, "小女孩": 4676, "z@@": 4677, "丝@@": 4678, "st@@": 4679, "违法行为": 4680, "千": 4681, "夺@@": 4682, "悲剧": 4683, "上去": 4684, "走出": 4685, "号码": 4686, "周某": 4687, "庄@@": 4688, "隔@@": 4689, "组长": 4690, "特点": 4691, "重伤": 4692, "不可": 4693, "残@@": 4694, "测@@": 4695, "20%": 4696, "仇": 4697, "水库": 4698, "赶往": 4699, "阿姨": 4700, "模@@": 4701, "演员": 4702, "推": 4703, "约定": 4704, "宁波": 4705, "婚礼": 4706, "欣@@": 4707, "码头": 4708, "午@@": 4709, "才@@": 4710, "郭": 4711, "均@@": 4712, "研究所": 4713, "省政府": 4714, "柯@@": 4715, "踏@@": 4716, "车道": 4717, "饮@@": 4718, "长时间": 4719, "哪": 4720, "纯@@": 4721, "赶来": 4722, "阿里巴巴": 4723, "毁": 4724, "汇": 4725, "巨额": 4726, "疑": 4727, "一部": 4728, "刻": 4729, "国企": 4730, "医护人员": 4731, "话题": 4732, "空军": 4733, "抛@@": 4734, "回去": 4735, "r": 4736, "一笔": 4737, "防守": 4738, "逼": 4739, "数额": 4740, "高层": 4741, "反复": 4742, "呈": 4743, "裤": 4744, "智能": 4745, "闭@@": 4746, "通常": 4747, "尊重": 4748, "网民": 4749, "订@@": 4750, "获取": 4751, "床上": 4752, "98": 4753, "栏": 4754, "欠@@": 4755, "卷@@": 4756, "崇@@": 4757, "险@@": 4758, "舒@@": 4759, "毕竟": 4760, "虽": 4761, "反击": 4762, "特征": 4763, "59": 4764, "旭": 4765, "警官": 4766, "也许": 4767, "拍照": 4768, "薄@@": 4769, "28@@": 4770, "刑事": 4771, "el@@": 4772, "新型": 4773, "物质": 4774, "卫星": 4775, "饭店": 4776, "个股": 4777, "所长": 4778, "评": 4779, "翼": 4780, "宫@@": 4781, "遥@@": 4782, "珍@@": 4783, "女童": 4784, "尝试": 4785, "泉@@": 4786, "好像": 4787, "#": 4788, "范": 4789, "打造": 4790, "一家人": 4791, "屏": 4792, "势@@": 4793, "软@@": 4794, "板@@": 4795, "貌": 4796, "动力": 4797, "攀@@": 4798, "个别": 4799, "适@@": 4800, "敢": 4801, "疑问": 4802, "砸@@": 4803, "江苏省": 4804, "决赛": 4805, "等等": 4806, "强降水": 4807, "暴": 4808, "劳动": 4809, "夜间": 4810, "身穿": 4811, "随": 4812, "今天上午": 4813, "血迹": 4814, "懂": 4815, "重组": 4816, "倒地": 4817, "执法人员": 4818, "孝@@": 4819, "真相": 4820, "挖": 4821, "镇政府": 4822, "奥巴马": 4823, "吓@@": 4824, "蒙": 4825, "冲击": 4826, "本周": 4827, "距": 4828, "各自": 4829, "小心": 4830, "滨@@": 4831, "伏": 4832, "丰富": 4833, "余万元": 4834, "不可@@": 4835, "绝对": 4836, "环比": 4837, "规": 4838, "al@@": 4839, "秋": 4840, "骨折": 4841, "诉@@": 4842, "知名": 4843, "体制": 4844, "球迷": 4845, "阿尔@@": 4846, "艺术": 4847, "工业@@": 4848, "讲话": 4849, "理论": 4850, "宏": 4851, "运营商": 4852, "极": 4853, "研究院": 4854, "药物": 4855, "人类": 4856, "有利于": 4857, "猎@@": 4858, "经营@@": 4859, "工程@@": 4860, "开除党籍": 4861, "哪@@": 4862, "补充": 4863, "访@@": 4864, "埋@@": 4865, "虫": 4866, "身高": 4867, "冰雹": 4868, "池@@": 4869, "窗@@": 4870, "癌": 4871, "主人": 4872, "分配": 4873, "火车": 4874, "俄": 4875, "高峰": 4876, "签@@": 4877, "立法": 4878, "at@@": 4879, "路线": 4880, "煤": 4881, "本赛季": 4882, "伯": 4883, "on@@": 4884, "销量": 4885, "猫": 4886, "权益": 4887, "维修": 4888, "捅": 4889, "路面": 4890, "出手": 4891, "骑士": 4892, "拉开": 4893, "潜艇": 4894, "结论": 4895, "谈话": 4896, "患有": 4897, "缓": 4898, "从未": 4899, "诗@@": 4900, "聚": 4901, "扶@@": 4902, "南昌": 4903, "鸡": 4904, "茶@@": 4905, "满意": 4906, "明天": 4907, "案情": 4908, "级别": 4909, "移民": 4910, "圈@@": 4911, "跃@@": 4912, "刑拘": 4913, "答应": 4914, "超出": 4915, "救人": 4916, "欢@@": 4917, "市委常委": 4918, "无论": 4919, "反弹": 4920, "巴西": 4921, "明年": 4922, "审讯": 4923, "嘴": 4924, "顾客": 4925, "芬": 4926, "宿@@": 4927, "财务": 4928, "城镇": 4929, "招聘": 4930, "豪@@": 4931, "丝": 4932, "浓度": 4933, "10%": 4934, "搭@@": 4935, "户外": 4936, "前面": 4937, "迈@@": 4938, "苑": 4939, "万亿元": 4940, "贺@@": 4941, "次日": 4942, "助理": 4943, "湖北省": 4944, "双手": 4945, "知识": 4946, "拘留": 4947, "一级": 4948, "移交": 4949, "贸": 4950, "年间": 4951, "桌": 4952, "局面": 4953, "1.5": 4954, "席@@": 4955, "抚@@": 4956, "搞@@": 4957, "聊": 4958, "奔@@": 4959, "微博上": 4960, "金融机构": 4961, "捐款": 4962, "纪念@@": 4963, "配置": 4964, "廖@@": 4965, "宾@@": 4966, "空气": 4967, "加工": 4968, "前期": 4969, "尤@@": 4970, "靠近": 4971, "推广": 4972, "灾": 4973, "绍@@": 4974, "即便": 4975, "面包车": 4976, "胶@@": 4977, "震荡": 4978, "盈利": 4979, "疯狂": 4980, "督@@": 4981, "龄": 4982, "30%": 4983, "层面": 4984, "私人": 4985, "关键@@": 4986, "检方": 4987, "养老保险": 4988, "能否": 4989, "纪念": 4990, "本月": 4991, "案发后": 4992, "逐@@": 4993, "竹@@": 4994, "声称": 4995, "下班": 4996, "派出": 4997, "余额": 4998, "频道": 4999, "食物": 5000, "傍晚": 5001, "艳@@": 5002, "全身": 5003, "64": 5004, "玛@@": 5005, "大桥": 5006, "心理@@": 5007, "江市": 5008, "喝酒": 5009, "93": 5010, "伊": 5011, "组织部": 5012, "经费": 5013, "当初": 5014, "恐怖@@": 5015, "涨@@": 5016, "济@@": 5017, "鸟": 5018, "自行": 5019, "会员": 5020, "答": 5021, "博物馆": 5022, "开发区": 5023, "扭@@": 5024, "裁判": 5025, "开工": 5026, "腾": 5027, "打破": 5028, "幼@@": 5029, "弄": 5030, "有限": 5031, "老虎": 5032, "传媒": 5033, "探索": 5034, "所得": 5035, "主持": 5036, "ma@@": 5037, "旅@@": 5038, "阳光": 5039, "最多": 5040, "下半年": 5041, "温度": 5042, "上车": 5043, "审判": 5044, "争取": 5045, "数十@@": 5046, "谷@@": 5047, "征收": 5048, "替考": 5049, "辞职": 5050, "就此": 5051, "发起": 5052, "拆": 5053, "高度重视": 5054, "=": 5055, "健@@": 5056, "本案": 5057, "西班牙": 5058, "班主任": 5059, "钻@@": 5060, "童": 5061, "安徽省": 5062, "租房": 5063, "陈先生": 5064, "零": 5065, "好友": 5066, "任意球": 5067, "交易@@": 5068, "生物": 5069, "看起来": 5070, "66": 5071, "政委": 5072, "阿里": 5073, "传闻": 5074, "昨天上午": 5075, "防护": 5076, "债@@": 5077, "利亚": 5078, "堡": 5079, "意思": 5080, "阵容": 5081, "瞬间": 5082, "炮@@": 5083, "未成年人": 5084, "舆论": 5085, "62": 5086, "紫@@": 5087, "转载": 5088, "汤": 5089, "县城": 5090, "传出": 5091, "替": 5092, "裂": 5093, "打捞": 5094, "加拿大": 5095, "带回": 5096, "豪": 5097, "犯规": 5098, "释": 5099, "联盟": 5100, "止@@": 5101, "后续": 5102, "或@@": 5103, "餐@@": 5104, "公寓": 5105, "视网": 5106, "接着": 5107, "鑫": 5108, "妹": 5109, "00@@": 5110, "□": 5111, "劝@@": 5112, "污水": 5113, "郑": 5114, "以往": 5115, "秘密": 5116, "榜": 5117, "参考消息": 5118, "驶@@": 5119, "意大利": 5120, "社保": 5121, "营业@@": 5122, "过后": 5123, "实力": 5124, "排放": 5125, "公平": 5126, "址": 5127, "让@@": 5128, "恒": 5129, "培养": 5130, "原告": 5131, "统@@": 5132, "大厅": 5133, "皮肤": 5134, "堆": 5135, "仁": 5136, "完整": 5137, "本地": 5138, "夏天": 5139, "武装": 5140, "牌@@": 5141, "新建": 5142, "詹姆斯": 5143, "日军": 5144, "夫@@": 5145, "酸": 5146, "那样": 5147, "鲁": 5148, "指定": 5149, "估值": 5150, "闪@@": 5151, "阻@@": 5152, "建造": 5153, "基础设施": 5154, "围绕": 5155, "伤口": 5156, "同一": 5157, "异": 5158, "多种": 5159, "苏": 5160, "摸@@": 5161, "陪同": 5162, "例如": 5163, "冰": 5164, "初": 5165, "独自": 5166, "晚间": 5167, "自动": 5168, "受损": 5169, "衡@@": 5170, "000": 5171, "成果": 5172, "罐": 5173, "初中": 5174, "反馈": 5175, "核": 5176, "永远": 5177, "心情": 5178, "彬": 5179, "认": 5180, "事故现场": 5181, "96": 5182, "依旧": 5183, "汤@@": 5184, "党员": 5185, "涉嫌犯罪": 5186, "警力": 5187, "男生": 5188, "岸@@": 5189, "本市": 5190, "尽量": 5191, "大街": 5192, "不但": 5193, "捐@@": 5194, "障碍": 5195, "高兴": 5196, "新加坡": 5197, "生命危险": 5198, "交往": 5199, "中有": 5200, "责任@@": 5201, "雇@@": 5202, "摄影": 5203, "69": 5204, "天津市": 5205, "责令": 5206, "末": 5207, "窗": 5208, "保留": 5209, "志愿者": 5210, "担@@": 5211, "净": 5212, "行情": 5213, "可见": 5214, "少数": 5215, "佛山": 5216, "le@@": 5217, "坛": 5218, "监": 5219, "枪支": 5220, "民政局": 5221, "石家庄": 5222, "介@@": 5223, "拖": 5224, "黑龙江省": 5225, "校园": 5226, "72": 5227, "移": 5228, "超标": 5229, "凉@@": 5230, "法律@@": 5231, "棍": 5232, "煤矿": 5233, "催@@": 5234, "预测": 5235, "协": 5236, "减": 5237, "en@@": 5238, "破门": 5239, "考古": 5240, "是@@": 5241, "转让": 5242, "更为": 5243, "赌博": 5244, "考核": 5245, "策略": 5246, "乳@@": 5247, "缴费": 5248, "不时": 5249, "劝说": 5250, "下属": 5251, "二十@@": 5252, "闻@@": 5253, "汽@@": 5254, "公开@@": 5255, "凶@@": 5256, "汇报": 5257, "奉@@": 5258, "上周": 5259, "主管": 5260, "该院": 5261, "最初": 5262, "这辆": 5263, "提取": 5264, "红包": 5265, "贿赂": 5266, "蓝色": 5267, "2004": 5268, "恶劣": 5269, "总队": 5270, "腰@@": 5271, "区内": 5272, "360": 5273, "小米": 5274, "出示": 5275, "考察": 5276, "一楼": 5277, "惠": 5278, "真是": 5279, "搜@@": 5280, "脱": 5281, "京华": 5282, "予": 5283, "一时": 5284, "旗@@": 5285, "表演": 5286, "膜": 5287, "转会": 5288, "出于": 5289, "劳": 5290, "陆": 5291, "怀": 5292, "赫@@": 5293, "技@@": 5294, "聚集": 5295, "掌@@": 5296, "堂@@": 5297, "象@@": 5298, "80%": 5299, "君@@": 5300, "流传": 5301, "速@@": 5302, "阻止": 5303, "回归": 5304, "烂": 5305, "老百姓": 5306, "优秀": 5307, "争吵": 5308, "生于": 5309, "预防": 5310, "位@@": 5311, "价格@@": 5312, "千万": 5313, "陕西省": 5314, "中介": 5315, "大厦": 5316, "在外": 5317, "三天": 5318, "尹@@": 5319, "用来": 5320, "冠@@": 5321, "伤势": 5322, "苏州": 5323, "利息": 5324, "村委会": 5325, "支撑": 5326, "安市": 5327, "显": 5328, "净利润": 5329, "九": 5330, "共同@@": 5331, "扔": 5332, "网吧": 5333, "分公司": 5334, "仓库": 5335, "周刊": 5336, "爆": 5337, "墙@@": 5338, "试验": 5339, "更换": 5340, "夏": 5341, "不清": 5342, "搜寻": 5343, "缴": 5344, "67": 5345, "_": 5346, "年内": 5347, "南宁": 5348, "货币": 5349, "麻烦": 5350, "简历": 5351, "幅度": 5352, "更大": 5353, "企@@": 5354, "原副": 5355, "期限": 5356, "碰@@": 5357, "诱@@": 5358, "切尔西": 5359, "50%": 5360, "辅@@": 5361, "硬": 5362, "开出": 5363, "衡": 5364, "太阳": 5365, "申报": 5366, "铺": 5367, "怪@@": 5368, "黑龙江": 5369, "寨": 5370, "福建省": 5371, "徐某": 5372, "校方": 5373, "刑事责任": 5374, "把@@": 5375, "登陆": 5376, "副省长": 5377, "居然": 5378, "从来": 5379, "成熟": 5380, "术": 5381, "底线": 5382, "男童": 5383, "各个": 5384, "乎": 5385, "毕业生": 5386, "代理": 5387, "读书": 5388, "标志": 5389, "历": 5390, "保护@@": 5391, "妻": 5392, "微软": 5393, "拒": 5394, "持股": 5395, "下面": 5396, "疼": 5397, "浙江省": 5398, "空气质量": 5399, "吉林": 5400, "角色": 5401, "一同": 5402, "短期": 5403, "样子": 5404, "另一名": 5405, "早晨": 5406, "行政拘留": 5407, "途径": 5408, "疏@@": 5409, "洛": 5410, "h": 5411, "救助站": 5412, "赚钱": 5413, "疲@@": 5414, "农业@@": 5415, "慢": 5416, "驱@@": 5417, "ceo": 5418, "建筑@@": 5419, "61": 5420, "坝": 5421, "牙": 5422, "华西都市报": 5423, "下调": 5424, "更新": 5425, "头发": 5426, "分管": 5427, "包装": 5428, "手里": 5429, "适当": 5430, "酸@@": 5431, "嫌犯": 5432, "媳妇": 5433, "地球": 5434, "男女": 5435, "各方": 5436, "爆发": 5437, "优化": 5438, "依法@@": 5439, "开心": 5440, "未经": 5441, "擦": 5442, "发稿": 5443, "老汉": 5444, "等到": 5445, "术@@": 5446, "勤@@": 5447, "合计": 5448, "念@@": 5449, "晨": 5450, "马刺": 5451, "赢": 5452, "窗口": 5453, "败": 5454, "验@@": 5455, "马路": 5456, "极端": 5457, "打车": 5458, "转变": 5459, "放开": 5460, "资讯": 5461, "捡": 5462, "97": 5463, "郑州市": 5464, "如下": 5465, "家族": 5466, "读@@": 5467, "免去": 5468, "故@@": 5469, "楼市": 5470, "浓@@": 5471, "治安": 5472, "主管部门": 5473, "多方": 5474, "租赁": 5475, "掩@@": 5476, "账号": 5477, "熊": 5478, "另据": 5479, "全年": 5480, "政法委": 5481, "其它": 5482, "万达": 5483, "择@@": 5484, "63": 5485, "凤": 5486, "车门": 5487, "南京市": 5488, "刘先生": 5489, "后者": 5490, "尊@@": 5491, "发射": 5492, "素@@": 5493, "遮@@": 5494, "祥@@": 5495, "贼": 5496, "腾@@": 5497, "哈尔滨": 5498, "逾": 5499, "央企": 5500, "省委常委": 5501, "乘": 5502, "发帖": 5503, "额@@": 5504, "适应": 5505, "致使": 5506, "有时候": 5507, "77": 5508, "超级": 5509, "侧": 5510, "办公厅": 5511, "另有": 5512, "董事": 5513, "献@@": 5514, "相当于": 5515, "一间": 5516, "荒@@": 5517, "副总经理": 5518, "统筹": 5519, "陪@@": 5520, "实习生": 5521, "截止": 5522, "债券": 5523, "国家队": 5524, "94": 5525, "森林": 5526, "主题": 5527, "环保局": 5528, "世界杯": 5529, "谷歌": 5530, "受害者": 5531, "倾@@": 5532, "教练": 5533, "置": 5534, "勇@@": 5535, "那天": 5536, "公车": 5537, "奖金": 5538, "社交": 5539, "戈@@": 5540, "极大": 5541, "排队": 5542, "豆@@": 5543, "壮@@": 5544, "不行": 5545, "填@@": 5546, "皇@@": 5547, "轨": 5548, "暖": 5549, "2003": 5550, "玩耍": 5551, "随时": 5552, "频繁": 5553, "失败": 5554, "球场": 5555, "太原": 5556, "料@@": 5557, "苍@@": 5558, "仍@@": 5559, "适合": 5560, "借款": 5561, "袭": 5562, "葬": 5563, "发动": 5564, "小偷": 5565, "拔@@": 5566, "梯@@": 5567, "雯": 5568, "上演": 5569, "部位": 5570, "肝@@": 5571, "幸@@": 5572, "练": 5573, "担忧": 5574, "薪酬": 5575, "主持人": 5576, "勇士": 5577, "隔离": 5578, "援": 5579, "86": 5580, "深刻": 5581, "遗憾": 5582, "牛市": 5583, "澎湃": 5584, "纠@@": 5585, "积极@@": 5586, "寒@@": 5587, "止": 5588, "变更": 5589, "中共@@": 5590, "换下": 5591, "悔@@": 5592, "一方": 5593, "三轮车": 5594, "取出": 5595, "疫苗": 5596, "公安厅": 5597, "百万": 5598, "铺@@": 5599, "陌生": 5600, "肩@@": 5601, "率先": 5602, "链": 5603, "李克强": 5604, "领取": 5605, "迁": 5606, "传中": 5607, "故意杀人罪": 5608, "划": 5609, "测": 5610, "概念": 5611, "潭": 5612, "罚@@": 5613, "邻@@": 5614, "炒股": 5615, "演习": 5616, "鸿@@": 5617, "须": 5618, "微克": 5619, "痕迹": 5620, "牌照": 5621, "什": 5622, "毕@@": 5623, "鉴于": 5624, "摊": 5625, "漫@@": 5626, "依靠": 5627, "病例": 5628, "说起": 5629, "篮@@": 5630, "巧": 5631, "宣传@@": 5632, "坠楼": 5633, "积": 5634, "中华人民共和国": 5635, "哪儿": 5636, "其次": 5637, "出资": 5638, "贤": 5639, "今": 5640, "遭@@": 5641, "奋@@": 5642, "连胜": 5643, "少年": 5644, "负担": 5645, "航空公司": 5646, "天津@@": 5647, "人为": 5648, "类@@": 5649, "认证": 5650, "娘": 5651, "这项": 5652, "生前": 5653, "少女": 5654, "跳楼": 5655, "探": 5656, "作风": 5657, "准确": 5658, "再也": 5659, "任命": 5660, "张女士": 5661, "壳": 5662, "财务@@": 5663, "翔": 5664, "公示": 5665, "控制@@": 5666, "决心": 5667, "仿@@": 5668, "牺牲": 5669, "故障": 5670, "湖人": 5671, "诊": 5672, "学员": 5673, "必": 5674, "境@@": 5675, "伙": 5676, "万多元": 5677, "认可": 5678, "82": 5679, "首都": 5680, "组合": 5681, "甘肃": 5682, "一审判决": 5683, "埋": 5684, "秘书": 5685, "滨": 5686, "基于": 5687, "不起": 5688, "四年": 5689, "页": 5690, "占据": 5691, "赔@@": 5692, "二级": 5693, "牙@@": 5694, "深化": 5695, "旅": 5696, "用地": 5697, "村干部": 5698, "两种": 5699, "强大": 5700, "润@@": 5701, "阅读": 5702, "擦@@": 5703, "灰@@": 5704, "追逃": 5705, "定位": 5706, "自然@@": 5707, "啦": 5708, "怪": 5709, "赶赴现场": 5710, "赶": 5711, "阵": 5712, "浪": 5713, "分享": 5714, "性格": 5715, "引进": 5716, "明白": 5717, "行凶": 5718, "董事会": 5719, "举措": 5720, "剥夺": 5721, "爱情": 5722, "海口": 5723, "顾": 5724, "败@@": 5725, "属实": 5726, "效率": 5727, "吓": 5728, "解说": 5729, "修建": 5730, "门将": 5731, "微博@@": 5732, "阳台": 5733, "安县": 5734, "直至": 5735, "千元": 5736, "哈": 5737, "漏洞": 5738, "绝": 5739, "溪@@": 5740, "染@@": 5741, "寿@@": 5742, "开庭审理": 5743, "软": 5744, "制止": 5745, "分为": 5746, "滴滴": 5747, "高端": 5748, "渡@@": 5749, "参观": 5750, "宝马": 5751, "邢@@": 5752, "朗": 5753, "欲@@": 5754, "现任": 5755, "一案": 5756, "波动": 5757, "从小": 5758, "学会": 5759, "不动产": 5760, "特色": 5761, "交通运输": 5762, "调查组": 5763, "小伙子": 5764, "大小": 5765, "勘查": 5766, "炸@@": 5767, "平米": 5768, "手机@@": 5769, "销@@": 5770, "孙子": 5771, "刑侦": 5772, "萨": 5773, "坏@@": 5774, "熟": 5775, "尘": 5776, "答复": 5777, "无人机": 5778, "捕": 5779, "车厢": 5780, "民生": 5781, "弄@@": 5782, "大盘": 5783, "年纪": 5784, "深夜": 5785, "最为": 5786, "救出": 5787, "用品": 5788, "亮相": 5789, "二楼": 5790, "工商@@": 5791, "突发": 5792, "泉州": 5793, "此类": 5794, "扫": 5795, "切实": 5796, "不止": 5797, "欠": 5798, "标题": 5799, "函": 5800, "维权": 5801, "出院": 5802, "轻松": 5803, "有限责任": 5804, "巧@@": 5805, "尖@@": 5806, "洗": 5807, "it@@": 5808, "该局": 5809, "扶": 5810, "害@@": 5811, "砖": 5812, "一则": 5813, "赔": 5814, "道德": 5815, "要是": 5816, "水面": 5817, "证书": 5818, "法制晚报": 5819, "送给": 5820, "灾@@": 5821, "野": 5822, "定性": 5823, "前天": 5824, "洁@@": 5825, "航空@@": 5826, "许可": 5827, "蛇": 5828, "父@@": 5829, "露出": 5830, "投资@@": 5831, "丧@@": 5832, "旬": 5833, "瓶@@": 5834, "郎": 5835, "两市": 5836, "船舶": 5837, "以外": 5838, "额度": 5839, "编制": 5840, "反腐败": 5841, "件@@": 5842, "被判": 5843, "日本@@": 5844, "后卫": 5845, "27@@": 5846, "泥@@": 5847, "减持": 5848, "五个": 5849, "海洋": 5850, "耀@@": 5851, "舰@@": 5852, "流动性": 5853, "注@@": 5854, "冻": 5855, "加速": 5856, "卖淫": 5857, "恨": 5858, "降雨": 5859, "闲@@": 5860, "击败": 5861, "gdp": 5862, "育": 5863, "还给": 5864, "公安部门": 5865, "传言": 5866, "怎么办": 5867, "入住": 5868, "寻求": 5869, "善": 5870, "瓜": 5871, "电商": 5872, "敲@@": 5873, "公款": 5874, "建设@@": 5875, "注": 5876, "落网": 5877, "行贿": 5878, "茂@@": 5879, "润": 5880, "相互": 5881, "生活@@": 5882, "广告@@": 5883, "桃@@": 5884, "帖": 5885, "92": 5886, "局部": 5887, "夹@@": 5888, "拳@@": 5889, "楼盘": 5890, "遇难": 5891, "提及": 5892, "薛@@": 5893, "缩@@": 5894, "传销": 5895, "配套": 5896, "阿": 5897, "慢@@": 5898, "表态": 5899, "91": 5900, "缓解": 5901, "铭": 5902, "伪造": 5903, "下发": 5904, "正确": 5905, "武警": 5906, "商量": 5907, "猥亵": 5908, "回国": 5909, "陵@@": 5910, "日常": 5911, "信访": 5912, "老年人": 5913, "盟": 5914, "流程": 5915, "周岁": 5916, "25@@": 5917, "末@@": 5918, "兼@@": 5919, "损伤": 5920, "由此": 5921, "6000": 5922, "裁@@": 5923, "边缘": 5924, "无论是": 5925, "就算": 5926, "总裁": 5927, "呈现": 5928, "追求": 5929, "别的": 5930, "海关": 5931, "抱@@": 5932, "生日": 5933, "综合@@": 5934, "佛": 5935, "输": 5936, "每人": 5937, "况": 5938, "开门": 5939, "客人": 5940, "躲@@": 5941, "恋爱": 5942, "津": 5943, "专业@@": 5944, "集团公司": 5945, "消息人士": 5946, "息@@": 5947, "想象": 5948, "一台": 5949, "透": 5950, "西藏": 5951, "拜": 5952, "签约": 5953, "谭@@": 5954, "剪@@": 5955, "我省": 5956, "旁@@": 5957, "去年同期": 5958, "舍": 5959, "遭受": 5960, "一个@@": 5961, "中旬": 5962, "电信": 5963, "第四": 5964, "陷": 5965, "遗址": 5966, "危": 5967, "路过": 5968, "信任": 5969, "直升机": 5970, "虹": 5971, "胡某": 5972, "缘@@": 5973, "拟@@": 5974, "掌": 5975, "琪": 5976, "座@@": 5977, "朗@@": 5978, "到场": 5979, "确诊": 5980, "研究@@": 5981, "足够": 5982, "遇@@": 5983, "嫁": 5984, "粗@@": 5985, "天天": 5986, "决策": 5987, "凭": 5988, "粮": 5989, "嫌疑": 5990, "腹@@": 5991, "饰": 5992, "诸@@": 5993, "凌@@": 5994, "一组": 5995, "事务": 5996, "龄@@": 5997, "盐": 5998, "贾": 5999, "2016": 6000, "洛阳": 6001, "答案": 6002, "埃": 6003, "举动": 6004, "终身": 6005, "办事": 6006, "选手": 6007, "慧@@": 6008, "吉林省": 6009, "煤炭": 6010, "中年男子": 6011, "分布": 6012, "货物": 6013, "导游": 6014, "教育部": 6015, "调取": 6016, "通知书": 6017, "最早": 6018, "半小时": 6019, "清晰": 6020, "天然气": 6021, "一栋": 6022, "出租屋": 6023, "赢得": 6024, "平稳": 6025, "批@@": 6026, "营销": 6027, "平衡": 6028, "买卖": 6029, "使@@": 6030, "万吨": 6031, "训": 6032, "常常": 6033, "令人@@": 6034, "邦": 6035, "既然": 6036, "售价": 6037, "小王": 6038, "坦言": 6039, "出任": 6040, "护栏": 6041, "肚子": 6042, "澳@@": 6043, "列入": 6044, "决": 6045, "街头": 6046, "层@@": 6047, "嘛": 6048, "同年": 6049, "差不多": 6050, "尖": 6051, "不便": 6052, "不慎": 6053, "惜": 6054, "核查": 6055, "管委会": 6056, "乙@@": 6057, "余名": 6058, "劲": 6059, "率@@": 6060, "手表": 6061, "配备": 6062, "莲@@": 6063, "刑法": 6064, "这条": 6065, "敏@@": 6066, "89": 6067, "昏迷": 6068, "pm2.5": 6069, "长春": 6070, "商户": 6071, "基本上": 6072, "篇": 6073, "正好": 6074, "令@@": 6075, "政治@@": 6076, "晋": 6077, "爸": 6078, "居民@@": 6079, "七八@@": 6080, "亲自": 6081, "81": 6082, "外交部": 6083, "肖": 6084, "美军": 6085, "割@@": 6086, "实验": 6087, "可疑": 6088, "或是": 6089, "2002": 6090, "合适": 6091, "博士": 6092, "刻@@": 6093, "财政部": 6094, "丢失": 6095, "尼亚": 6096, "食堂": 6097, "丢@@": 6098, "密码": 6099, "其间": 6100, "地带": 6101, "一根": 6102, "挖@@": 6103, "港口": 6104, "骗取": 6105, "神秘": 6106, "震": 6107, "上半场": 6108, "诸多": 6109, "1500": 6110, "忘": 6111, "子弹": 6112, "艺术@@": 6113, "露@@": 6114, "游泳": 6115, "档@@": 6116, "仪@@": 6117, "一面": 6118, "尼奥": 6119, "周一": 6120, "型@@": 6121, "彦@@": 6122, "主权": 6123, "迹象": 6124, "聊@@": 6125, "咬": 6126, "禁": 6127, "却是": 6128, "烈@@": 6129, "花园": 6130, "滚@@": 6131, "贪污": 6132, "黄牌": 6133, "漂@@": 6134, "拒@@": 6135, "一支": 6136, "眉@@": 6137, "74": 6138, "78": 6139, "商家": 6140, "不良@@": 6141, "凤凰": 6142, "亮@@": 6143, "靖@@": 6144, "砖@@": 6145, "当选": 6146, "销售@@": 6147, "逆@@": 6148, "领导小组": 6149, "舞台": 6150, "情形": 6151, "备案": 6152, "热议": 6153, "留守": 6154, "效@@": 6155, "津@@": 6156, "喊@@": 6157, "餐厅": 6158, "旭@@": 6159, "农民工": 6160, "典": 6161, "范冰冰": 6162, "仙@@": 6163, "伤情": 6164, "撕@@": 6165, "贸@@": 6166, "到来": 6167, "陈女士": 6168, "仔细": 6169, "空调": 6170, "法治": 6171, "妙": 6172, "11.@@": 6173, "资质": 6174, "弱@@": 6175, "验": 6176, "响@@": 6177, "泪": 6178, "徒": 6179, "电视@@": 6180, "87": 6181, "粮@@": 6182, "盒": 6183, "先是": 6184, "检察官": 6185, "清华大学": 6186, "钥匙": 6187, "帖子": 6188, "宾": 6189, "凝@@": 6190, "知情人": 6191, "踢": 6192, "猛": 6193, "恰@@": 6194, "枚": 6195, "东北@@": 6196, "耳": 6197, "娃": 6198, "城市@@": 6199, "策": 6200, "新华": 6201, "办事处": 6202, "一番": 6203, "楼房": 6204, "走向": 6205, "菜刀": 6206, "油价": 6207, "女方": 6208, "聂@@": 6209, "侦破": 6210, "店里": 6211, "阶@@": 6212, "三星": 6213, "宿": 6214, "进来": 6215, "孕妇": 6216, "怒@@": 6217, "不如": 6218, "隐患": 6219, "纷@@": 6220, "八": 6221, "留言": 6222, "曼@@": 6223, "伞": 6224, "哥@@": 6225, "不予": 6226, "同期": 6227, "巷": 6228, "三大": 6229, "皮球": 6230, "保险公司": 6231, "碰撞": 6232, "角球": 6233, "南京@@": 6234, "战士": 6235, "无疑": 6236, "12.@@": 6237, "么": 6238, "针@@": 6239, "前方": 6240, "接警": 6241, "五六@@": 6242, "灭": 6243, "装置": 6244, "一道": 6245, "薪@@": 6246, "水泥": 6247, "肺@@": 6248, "赌@@": 6249, "拼@@": 6250, "哦": 6251, "写道": 6252, "含@@": 6253, "现身": 6254, "一所": 6255, "总书记": 6256, "绑架": 6257, "阜@@": 6258, "总公司": 6259, "签字": 6260, "该车": 6261, "楚@@": 6262, "域": 6263, "陷@@": 6264, "戈": 6265, "潮@@": 6266, "医疗@@": 6267, "上级": 6268, "实践": 6269, "交易所": 6270, "碰到": 6271, "块钱": 6272, "旅行": 6273, "里斯": 6274, "老乡": 6275, "解放军": 6276, "运作": 6277, "布局": 6278, "摊@@": 6279, "绿色": 6280, "73": 6281, "休": 6282, "济": 6283, "勾@@": 6284, "耗@@": 6285, "效力": 6286, "剩": 6287, "吐@@": 6288, "信用": 6289, "痛苦": 6290, "抬@@": 6291, "识别": 6292, "事务所": 6293, "冯": 6294, "正当": 6295, "锅": 6296, "攻门": 6297, "艇": 6298, "香港@@": 6299, "综@@": 6300, "农药": 6301, "先进": 6302, "档案": 6303, "关联": 6304, "嘴@@": 6305, "上海市": 6306, "手持": 6307, "开设": 6308, "安全隐患": 6309, "夫妻俩": 6310, "郑某": 6311, "营收": 6312, "广播": 6313, "老太": 6314, "第三方": 6315, "私": 6316, "所说": 6317, "惠州": 6318, "不料": 6319, "上报": 6320, "累@@": 6321, "看上去": 6322, "忽@@": 6323, "管道": 6324, "腐@@": 6325, "违法犯罪": 6326, "多万": 6327, "长达": 6328, "多月": 6329, "积水": 6330, "选举": 6331, "体检": 6332, "国资委": 6333, "正面": 6334, "一会儿": 6335, "挤@@": 6336, "姐@@": 6337, "es@@": 6338, "高出": 6339, "爽": 6340, "仓@@": 6341, "公务": 6342, "平均@@": 6343, "圆": 6344, "便宜": 6345, "以此": 6346, "室外": 6347, "董": 6348, "疗@@": 6349, "晨@@": 6350, "万平方米": 6351, "垃圾@@": 6352, "2001": 6353, "一大": 6354, "胃@@": 6355, "碗": 6356, "牢@@": 6357, "安保": 6358, "中场": 6359, "自愿": 6360, "谨慎": 6361, "杂志": 6362, "莹": 6363, "魏": 6364, "辈": 6365, "富豪": 6366, "2.5": 6367, "屋内": 6368, "感动": 6369, "耀": 6370, "奶@@": 6371, "对比": 6372, "样@@": 6373, "索要": 6374, "不已": 6375, "帽": 6376, "上课": 6377, "室内": 6378, "水果": 6379, "争夺": 6380, "历史@@": 6381, "中山": 6382, "牧@@": 6383, "自首": 6384, "中路": 6385, "停牌": 6386, "漏@@": 6387, "现年": 6388, "剑@@": 6389, "凭借": 6390, "奔": 6391, "总量": 6392, "电影@@": 6393, "老伴": 6394, "态势": 6395, "爬@@": 6396, "燃": 6397, "候": 6398, "杠杆": 6399, "苗@@": 6400, "种植": 6401, "将来": 6402, "偏": 6403, "缓@@": 6404, "*": 6405, "严重@@": 6406, "刘女士": 6407, "供图": 6408, "工资@@": 6409, "看出": 6410, "脏": 6411, "结算": 6412, "趁": 6413, "最高@@": 6414, "阅兵": 6415, "商品房": 6416, "语言": 6417, "保存": 6418, "各国": 6419, "橙色": 6420, "柜": 6421, "棚": 6422, "朱某": 6423, "71": 6424, "悬@@": 6425, "主力": 6426, "厂商": 6427, "信用卡": 6428, "迫": 6429, "眼镜": 6430, "颗": 6431, "删除": 6432, "落地": 6433, "大姐": 6434, "体重": 6435, "得以": 6436, "解放@@": 6437, "播出": 6438, "县委书记": 6439, "对阵": 6440, "本报讯": 6441, "抗战": 6442, "心脏": 6443, "几位": 6444, "锻炼": 6445, "出版": 6446, "解除": 6447, "愈@@": 6448, "98.@@": 6449, "全程": 6450, "延续": 6451, "依": 6452, "瓜@@": 6453, "莲": 6454, "自从": 6455, "西方": 6456, "猪@@": 6457, "乐观": 6458, "咬@@": 6459, "挤": 6460, "传来": 6461, "接连": 6462, "贪腐": 6463, "在场": 6464, "峰@@": 6465, "霸@@": 6466, "赫": 6467, "该市": 6468, "罪名": 6469, "起到": 6470, "录@@": 6471, "亲友": 6472, "肥@@": 6473, "意愿": 6474, "马来西亚": 6475, "脱离": 6476, "卓@@": 6477, "融@@": 6478, "胆@@": 6479, "小张": 6480, "地址": 6481, "开启": 6482, "森@@": 6483, "时段": 6484, "慧": 6485, "灌@@": 6486, "西安市": 6487, "贩": 6488, "科技@@": 6489, "盟@@": 6490, "锁@@": 6491, "科长": 6492, "期货": 6493, "连接": 6494, "大火": 6495, "执勤": 6496, "江县": 6497, "句": 6498, "军人": 6499, "传球": 6500, "没什么": 6501, "座位": 6502, "精神病": 6503, "科学@@": 6504, "会上": 6505, "搬": 6506, "卧@@": 6507, "乌克兰": 6508, "裂@@": 6509, "智能手机": 6510, "含": 6511, "弃@@": 6512, "寒": 6513, "汇率": 6514, "非常@@": 6515, "事儿": 6516, "召回": 6517, "公益": 6518, "闯@@": 6519, "网帖": 6520, "无效": 6521, "默": 6522, "谣": 6523, "昭@@": 6524, "人体": 6525, "四处": 6526, "脸上": 6527, "女朋友": 6528, "[": 6529, "减轻": 6530, "醉": 6531, "无锡": 6532, "棒": 6533, "一旁": 6534, "今年以来": 6535, "]": 6536, "租住": 6537, "梯": 6538, "当庭": 6539, "出动": 6540, "呼": 6541, "今天下午": 6542, "83": 6543, "侵犯": 6544, "军方": 6545, "行长": 6546, "欢": 6547, "许可证": 6548, "出国": 6549, "休闲": 6550, "哪个": 6551, "快讯": 6552, "英雄": 6553, "颜色": 6554, "指挥部": 6555, "金属": 6556, "24@@": 6557, "处级": 6558, "教室": 6559, "偿还": 6560, "崔": 6561, "病床": 6562, "莱": 6563, "驾驶人员": 6564, "教训": 6565, "三是": 6566, "co@@": 6567, "躲": 6568, "春晚": 6569, "总数": 6570, "坍塌": 6571, "门外": 6572, "13.@@": 6573, "u": 6574, "绑": 6575, "遍": 6576, "朴@@": 6577, "手指": 6578, "场上": 6579, "手上": 6580, "偏出": 6581, "扑@@": 6582, "到处": 6583, "也就是说": 6584, "宴": 6585, "离职": 6586, "指责": 6587, "舱": 6588, "缅甸": 6589, "热线": 6590, "奶": 6591, "米兰": 6592, "贪@@": 6593, "消除": 6594, "担保": 6595, "政府部门": 6596, "逃逸": 6597, "处以": 6598, "人事": 6599, "队@@": 6600, "液@@": 6601, "拨": 6602, "曾多次": 6603, "文字": 6604, "林某": 6605, "作者": 6606, "太阳@@": 6607, "充电": 6608, "侦@@": 6609, "动手": 6610, "梳理": 6611, "石头": 6612, "整": 6613, "医保": 6614, "资金@@": 6615, "过度": 6616, "摘@@": 6617, "慈@@": 6618, "祝@@": 6619, "独": 6620, "演出": 6621, "看病": 6622, "转身": 6623, "署": 6624, "毫@@": 6625, "植@@": 6626, "(": 6627, "两国": 6628, "牢": 6629, "现行": 6630, "吞@@": 6631, "颖": 6632, "开枪": 6633, "大力": 6634, "扩@@": 6635, "员@@": 6636, "烧伤": 6637, "沈": 6638, "国土": 6639, "赖@@": 6640, "协同": 6641, "纪检监察": 6642, "痕": 6643, "联想": 6644, "互动": 6645, "活跃": 6646, "缴@@": 6647, "场景": 6648, "纽约": 6649, "鹰": 6650, "场地": 6651, "深度": 6652, "蔡": 6653, "拐@@": 6654, "杜": 6655, "法律法规": 6656, "身后": 6657, "公诉": 6658, "提起公诉": 6659, "前提": 6660, "撞倒": 6661, "可惜": 6662, "旅行社": 6663, "出租": 6664, "胖": 6665, "洞@@": 6666, "湖南@@": 6667, "伊朗": 6668, "票价": 6669, "表面": 6670, "八项": 6671, "适用": 6672, "过往": 6673, "定价": 6674, "频@@": 6675, "两会": 6676, "砍@@": 6677, "劲@@": 6678, "市场化": 6679, "购房": 6680, "浮": 6681, "中国政府": 6682, "辉@@": 6683, "窃@@": 6684, "一行": 6685, "出血": 6686, "重症": 6687, "腰": 6688, "84": 6689, "比较@@": 6690, "快船": 6691, "罕见": 6692, "庙": 6693, "小车": 6694, "侵害": 6695, "舍@@": 6696, "合影": 6697, "谱": 6698, "当地政府": 6699, "邓": 6700, "修复": 6701, "缘": 6702, "视为": 6703, "身为": 6704, "奢@@": 6705, "体内": 6706, "操": 6707, "101": 6708, "龚@@": 6709, "邻": 6710, "阵风": 6711, "制品": 6712, "肿": 6713, "不适": 6714, "办公": 6715, "孙女": 6716, "泡": 6717, "从轻": 6718, "不出": 6719, "开发@@": 6720, "自我": 6721, "祖": 6722, "施": 6723, "能量": 6724, "产权": 6725, "薄": 6726, "我要": 6727, "驾校": 6728, "米处": 6729, "实名": 6730, "丘@@": 6731, "堵": 6732, "96@@": 6733, "热火": 6734, "et@@": 6735, "第五@@": 6736, "鼻@@": 6737, "将近": 6738, "二审": 6739, "产业@@": 6740, "车头": 6741, "挨@@": 6742, "残": 6743, "笔录": 6744, "驾驶证": 6745, "浏@@": 6746, "难题": 6747, "银行@@": 6748, "汉族": 6749, "卫视": 6750, "常态": 6751, "具@@": 6752, "阅": 6753, "保健": 6754, "降水": 6755, "电源": 6756, "抚养": 6757, "心中": 6758, "充满": 6759, "厦@@": 6760, "轨道": 6761, "援引": 6762, "服装": 6763, "总共": 6764, "臣": 6765, "欧": 6766, "只得": 6767, "摆": 6768, "引来": 6769, "有力": 6770, "钱包": 6771, "不开": 6772, "as@@": 6773, "79": 6774, "大战": 6775, "赖": 6776, "成都市": 6777, "郊": 6778, "楼顶": 6779, "数据@@": 6780, "理性": 6781, "书面": 6782, "届时": 6783, "早就": 6784, "付出": 6785, "摔@@": 6786, "工作组": 6787, "放心": 6788, "克斯": 6789, "国有": 6790, "民主": 6791, "开庭": 6792, "灭@@": 6793, "总监": 6794, "荡": 6795, "缴获": 6796, "报价": 6797, "鲜": 6798, "粒": 6799, "其他人": 6800, "乘车": 6801, "26@@": 6802, "酷": 6803, "发展@@": 6804, "右路": 6805, "电器": 6806, "同居": 6807, "推行": 6808, "征地": 6809, "同行": 6810, "带动": 6811, "万股": 6812, "珠": 6813, "补助": 6814, "休假": 6815, "哲@@": 6816, "莫": 6817, "怒": 6818, "回升": 6819, "婆": 6820, "借钱": 6821, "渔船": 6822, "成分": 6823, "连夜": 6824, "维奇": 6825, "不算": 6826, "漂亮": 6827, "谈到": 6828, "赞": 6829, "地块": 6830, "起飞": 6831, "变动": 6832, "茶": 6833, "壁": 6834, "国有企业": 6835, "委会": 6836, "扯": 6837, "数百@@": 6838, "到期": 6839, "ro@@": 6840, "大声": 6841, "处罚金": 6842, "临": 6843, "算是": 6844, "县政府": 6845, "店铺": 6846, "款项": 6847, "即可": 6848, "并处": 6849, "警示": 6850, "走上": 6851, "之际": 6852, "未果": 6853, "盗": 6854, "格局": 6855, "廉": 6856, "拥堵": 6857, "省市": 6858, "役": 6859, "像是": 6860, "拨@@": 6861, "誉@@": 6862, "学者": 6863, "小梅": 6864, "沿海": 6865, "震惊": 6866, "条款": 6867, "坠@@": 6868, "拦@@": 6869, "吹@@": 6870, "上门": 6871, "曼城": 6872, "又@@": 6873, "备受": 6874, "摩": 6875, "篮": 6876, "北大": 6877, "接收": 6878, "整理": 6879, "买家": 6880, "组建": 6881, "判决书": 6882, "正规": 6883, "蛋": 6884, "下水": 6885, "局地": 6886, "影片": 6887, "素质": 6888, "混乱": 6889, "商人": 6890, "高档": 6891, "江南": 6892, "无力": 6893, "公交@@": 6894, "过年": 6895, "蛋@@": 6896, "妥": 6897, "豆": 6898, "争": 6899, "跟随": 6900, "vi@@": 6901, "大雨": 6902, "振": 6903, "那时": 6904, "弃": 6905, "第五": 6906, "定期": 6907, "50@@": 6908, "研究员": 6909, "250": 6910, "版本": 6911, "梦想": 6912, "敌": 6913, "完毕": 6914, "ipo": 6915, "偿": 6916, "之内": 6917, "跟踪": 6918, "热情": 6919, "肯@@": 6920, "人员伤亡": 6921, "好转": 6922, "希": 6923, "亲人": 6924, "秘": 6925, "一架": 6926, "湘": 6927, "收集": 6928, "不小": 6929, "州区": 6930, "曹": 6931, "王林": 6932, "纪委书记": 6933, "这才": 6934, "放松": 6935, "下行": 6936, "沟@@": 6937, "雷霆": 6938, "厨房": 6939, "限购": 6940, "监督@@": 6941, "独家": 6942, "晓": 6943, "魔@@": 6944, "处长": 6945, "锅@@": 6946, "二次": 6947, "保障@@": 6948, "昏@@": 6949, "伴@@": 6950, "给@@": 6951, "大人": 6952, "预案": 6953, "苏联": 6954, "为例": 6955, "现状": 6956, "敬": 6957, "互相": 6958, "帝": 6959, "上年": 6960, "车牌": 6961, "回落": 6962, "身体@@": 6963, "此举": 6964, "包含": 6965, "慌@@": 6966, "快乐": 6967, "规矩": 6968, "客户端": 6969, "益": 6970, "停放": 6971, "女司机": 6972, "不当": 6973, "观看": 6974, "右手": 6975, "相似": 6976, "已达": 6977, "村子": 6978, "科学家": 6979, "主帅": 6980, "物资": 6981, "十二@@": 6982, "上线": 6983, "周期": 6984, "无关": 6985, "风格": 6986, "谣言": 6987, "其后": 6988, "检查@@": 6989, "斗@@": 6990, "滥用职权": 6991, "一号": 6992, "看望": 6993, "媒": 6994, "交所": 6995, "娃娃": 6996, "前日": 6997, "郭某": 6998, "调查结果": 6999, "断裂": 7000, "长大": 7001, "两队": 7002, "含有": 7003, "国安": 7004, "就医": 7005, "姐妹": 7006, "割": 7007, "私家车": 7008, "殡仪馆": 7009, "当事": 7010, "23@@": 7011, "字样": 7012, "斗争": 7013, "第一季度": 7014, "拥@@": 7015, "墨@@": 7016, "从中": 7017, "血液": 7018, "并不@@": 7019, "灯@@": 7020, "昨天@@": 7021, "买入": 7022, "考场": 7023, "几": 7024, "判@@": 7025, "交警部门": 7026, "损": 7027, "印尼": 7028, "灰": 7029, "傅@@": 7030, "增持": 7031, "耿@@": 7032, "无期徒刑": 7033, "按规定": 7034, "承包": 7035, "频频": 7036, "够": 7037, "掏出": 7038, "恶意": 7039, "特警": 7040, "战机": 7041, "效应": 7042, "小林": 7043, "堵@@": 7044, "死者家属": 7045, "臭@@": 7046, "婚姻@@": 7047, "辽@@": 7048, "一波": 7049, "清单": 7050, "议员": 7051, "内蒙古自治区": 7052, "点球": 7053, "老太太": 7054, "孕": 7055, "天下": 7056, "所在地": 7057, "8000": 7058, "涌@@": 7059, "溺水": 7060, "酒后": 7061, "ti@@": 7062, "爆炸@@": 7063, "前妻": 7064, "迅@@": 7065, "地图": 7066, "苗": 7067, "遵@@": 7068, "摔": 7069, "经济损失": 7070, "徒@@": 7071, "保定": 7072, "几分钟": 7073, "武汉市": 7074, "强对流": 7075, "窝点": 7076, "报复": 7077, "越野车": 7078, "挺@@": 7079, "轨道交通": 7080, "投行": 7081, "呆": 7082, "解读": 7083, "优惠": 7084, "辞": 7085, "随意": 7086, "拽": 7087, "一下子": 7088, "轰@@": 7089, "电视剧": 7090, "醉酒": 7091, "盈@@": 7092, "这座": 7093, "全国@@": 7094, "责任人": 7095, "崖": 7096, "像@@": 7097, "答@@": 7098, "岗@@": 7099, "曾任": 7100, "金正恩": 7101, "馆@@": 7102, "相识": 7103, "京东": 7104, "共识": 7105, "走私": 7106, "点半": 7107, "荆@@": 7108, "开场": 7109, "自由@@": 7110, "之声": 7111, "说道": 7112, "左路": 7113, "消费@@": 7114, "降息": 7115, "曝": 7116, "辆车": 7117, "轻伤": 7118, "渭@@": 7119, "免职": 7120, "票房": 7121, "东南": 7122, "扇": 7123, "切断": 7124, "归还": 7125, "大雾": 7126, "有序": 7127, "维斯": 7128, "绳": 7129, "党风廉政": 7130, "磨@@": 7131, "狼@@": 7132, "污@@": 7133, "发言": 7134, "搬迁": 7135, "囊": 7136, "潘": 7137, "缩": 7138, "鸿": 7139, "施工@@": 7140, "小型": 7141, "麦": 7142, "连败": 7143, "罗某": 7144, "戒": 7145, "电动": 7146, "•": 7147, "纪检": 7148, "城县": 7149, "伊拉克": 7150, "经销商": 7151, "指示": 7152, "当即": 7153, "稍@@": 7154, "什么样": 7155, "摄像头": 7156, "莫斯科": 7157, "股民": 7158, "归案": 7159, "公正": 7160, "办公@@": 7161, "枝": 7162, "特意": 7163, "堆@@": 7164, "名称": 7165, "并称": 7166, "言论": 7167, "着急": 7168, "证人": 7169, "延长": 7170, "上访": 7171, "所有人": 7172, "单身": 7173, "坊@@": 7174, "沉": 7175, "后悔": 7176, "淑@@": 7177, "庭@@": 7178, "宝贝": 7179, "众人": 7180, "附属": 7181, "忍@@": 7182, "一群": 7183, "山上": 7184, "太多": 7185, "卖淫@@": 7186, "谭": 7187, "表情": 7188, "食用": 7189, "砍伤": 7190, "经纪人": 7191, "华人": 7192, "亡": 7193, "凶手": 7194, "男方": 7195, "小牛": 7196, "战胜": 7197, "敌@@": 7198, "服务员": 7199, "晶": 7200, "闷": 7201, "萧@@": 7202, "长沙市": 7203, "储备": 7204, "暴跌": 7205, "中新社": 7206, "首个": 7207, "裁定": 7208, "身材": 7209, "劝阻": 7210, "艰难": 7211, "廉@@": 7212, "战斗": 7213, "挂牌": 7214, "踩": 7215, "冻@@": 7216, "赏": 7217, "客机": 7218, "创作": 7219, "段时间": 7220, "电站": 7221, "宜": 7222, "封闭": 7223, "导员": 7224, "一层": 7225, "笼@@": 7226, "类型": 7227, "聘": 7228, "一次性": 7229, "撒@@": 7230, "制造业": 7231, "甘肃省": 7232, "依法处理": 7233, "鸣": 7234, "三四@@": 7235, "富力": 7236, "清华": 7237, "修订": 7238, "区长": 7239, "假期": 7240, "法定": 7241, "对抗": 7242, "琼@@": 7243, "诗": 7244, "糖": 7245, "低价": 7246, "辽宁省": 7247, "发票": 7248, "外媒": 7249, "炒作": 7250, "商店": 7251, "报销": 7252, "过于": 7253, "旦": 7254, "黎平": 7255, "链接": 7256, "呀": 7257, "调控": 7258, "外科": 7259, "赌": 7260, "澳门": 7261, "nba": 7262, "依照": 7263, "精彩": 7264, "卫生局": 7265, "似": 7266, "th@@": 7267, "to@@": 7268, "欧盟": 7269, "抗议": 7270, "坦克": 7271, "雁@@": 7272, "你@@": 7273, "斥": 7274, "获利": 7275, "该县": 7276, "省公安厅": 7277, "终": 7278, "要么": 7279, "释@@": 7280, "杀死": 7281, "运用": 7282, "楼上": 7283, "拳": 7284, "狗@@": 7285, "点击": 7286, "带有": 7287, "虑": 7288, "账@@": 7289, "镜头": 7290, "理想": 7291, "伴": 7292, "骑@@": 7293, "涵": 7294, "下半场": 7295, "干净": 7296, "幸": 7297, "情人": 7298, "重大@@": 7299, "麻": 7300, "被迫": 7301, "显著": 7302, "兆@@": 7303, "安检": 7304, "职位": 7305, "卿": 7306, "城乡": 7307, "不太@@": 7308, "亦@@": 7309, "远远": 7310, "识@@": 7311, "僵@@": 7312, "车内": 7313, "珠海": 7314, "辣@@": 7315, "种子": 7316, "蔬菜": 7317, "手臂": 7318, "60%": 7319, "对待": 7320, "计划生育": 7321, "逢": 7322, "辛苦": 7323, "族@@": 7324, "英语": 7325, "棉@@": 7326, "想起": 7327, "订单": 7328, "损坏": 7329, "短短": 7330, "志愿": 7331, "er": 7332, "一篇": 7333, "里克": 7334, "撤离": 7335, "非法@@": 7336, "摔倒": 7337, "趟": 7338, "乐视": 7339, "水域": 7340, "至此": 7341, "家庭@@": 7342, "嫁@@": 7343, "置业": 7344, "公司@@": 7345, "悲@@": 7346, "含量": 7347, "册": 7348, "贫@@": 7349, "塘@@": 7350, "医学": 7351, "门市": 7352, "旅游局": 7353, "碎@@": 7354, "当局": 7355, "往来": 7356, "韶@@": 7357, "百元": 7358, "码处": 7359, "朝阳": 7360, "客服": 7361, "倡@@": 7362, "mers": 7363, "仲@@": 7364, "刷@@": 7365, "渐渐": 7366, "权威": 7367, "总结": 7368, "歌手": 7369, "开除": 7370, "冒": 7371, "朝鲜@@": 7372, "0%": 7373, "原油": 7374, "宁市": 7375, "捷": 7376, "凉": 7377, "翻译": 7378, "案子": 7379, "汽车@@": 7380, "剩余": 7381, "申花": 7382, "柴@@": 7383, "透明": 7384, "名下": 7385, "放学": 7386, "家乡": 7387, "际": 7388, "播@@": 7389, "调任": 7390, "联合国": 7391, "花钱": 7392, "一头": 7393, "优质": 7394, "水量": 7395, "吊": 7396, "走势": 7397, "没能": 7398, "蕾": 7399, "年薪": 7400, "增幅": 7401, "院子": 7402, "直播": 7403, "泪@@": 7404, "滑": 7405, "各大": 7406, "辰": 7407, "巴黎": 7408, "买房": 7409, "车队": 7410, "工程师": 7411, "淡": 7412, "具体情况": 7413, "破获": 7414, "出警": 7415, "影响力": 7416, "常委会": 7417, "沃": 7418, "器@@": 7419, "喂@@": 7420, "胀": 7421, "国防": 7422, "群众@@": 7423, "遵守": 7424, "领导@@": 7425, "举报@@": 7426, "促": 7427, "伦敦": 7428, "上下": 7429, "园区": 7430, "14.@@": 7431, "孙某": 7432, "豪华": 7433, "计委": 7434, "命案": 7435, "具体@@": 7436, "侯": 7437, "一款": 7438, "税收": 7439, "钦@@": 7440, "招标": 7441, "宁县": 7442, "二战": 7443, "回报": 7444, "广播@@": 7445, "东莞市": 7446, "生命@@": 7447, "坠落": 7448, "我会": 7449, "小丽": 7450, "中部": 7451, "尴尬": 7452, "敏感": 7453, "做生意": 7454, "贩毒": 7455, "泄露": 7456, "建华": 7457, "鹿": 7458, "包裹": 7459, "」": 7460, "司令员": 7461, "强势": 7462, "陪伴": 7463, "祝福": 7464, "串": 7465, "强制措施": 7466, "40@@": 7467, "康复": 7468, "伴随": 7469, "国防部": 7470, "头上": 7471, "引": 7472, "兴趣": 7473, "礼金": 7474, "狠@@": 7475, "援助": 7476, "最小": 7477, "狱@@": 7478, "交警大队": 7479, "夏季": 7480, "伊斯兰": 7481, "星期": 7482, "优": 7483, "屯": 7484, "伙@@": 7485, "小说": 7486, "第二个": 7487, "信托": 7488, "两地": 7489, "野生动物": 7490, "非洲": 7491, "韦": 7492, "后期": 7493, "娃@@": 7494, "肢": 7495, "管局": 7496, "搭": 7497, "集资": 7498, "否@@": 7499, "状元": 7500, "「": 7501, "产妇": 7502, "学费": 7503, "政治权利": 7504, "40%": 7505, "村支书": 7506, "战场": 7507, "事先": 7508, "施救": 7509, "颇": 7510, "利好": 7511, "司@@": 7512, "可谓": 7513, "相撞": 7514, "改进": 7515, "民营": 7516, "进程": 7517, "一期": 7518, "葛@@": 7519, "耗": 7520, "赛事": 7521, ")": 7522, "化工": 7523, "岸边": 7524, "遇难者": 7525, "小朋友": 7526, "偷偷": 7527, "原料": 7528, "屏幕": 7529, "鞋@@": 7530, "情侣": 7531, "ic@@": 7532, "教学@@": 7533, "奸": 7534, "注重": 7535, "豪车": 7536, "外逃": 7537, "潜逃": 7538, "汽油": 7539, "泰达": 7540, "续约": 7541, "主角": 7542, "伤人": 7543, "致死": 7544, "医药": 7545, "积累": 7546, "锡@@": 7547, "库存": 7548, "哲": 7549, "普京": 7550, "旅游@@": 7551, "看法": 7552, "浏览": 7553, "高级@@": 7554, "参考": 7555, "有权": 7556, "面试": 7557, "押": 7558, "张家@@": 7559, "反抗": 7560, "全体": 7561, "沿": 7562, "东京": 7563, "判刑": 7564, "左手": 7565, "窝": 7566, "驾@@": 7567, "旺@@": 7568, "品种": 7569, "庆祝": 7570, "抬": 7571, "墓地": 7572, "瘦@@": 7573, "加班": 7574, "管制": 7575, "反超": 7576, "不得@@": 7577, "设计@@": 7578, "ad@@": 7579, "茅@@": 7580, "重庆市": 7581, "梅西": 7582, "释永信": 7583, "的@@": 7584, "百姓": 7585, "所幸": 7586, "迟迟": 7587, "想着": 7588, "不肯": 7589, "本轮": 7590, "郝@@": 7591, "签名": 7592, "渔民": 7593, "究": 7594, "新股": 7595, "|": 7596, "课程": 7597, "热点": 7598, "投案自首": 7599, "幼": 7600, "最快": 7601, "眼前": 7602, "寸": 7603, "健全": 7604, "讨": 7605, "均价": 7606, "生病": 7607, "拦截": 7608, "天后": 7609, "芦@@": 7610, "查出": 7611, "干预": 7612, "磨": 7613, "染": 7614, "岁@@": 7615, "面部": 7616, "诊所": 7617, "缉@@": 7618, "团体": 7619, "一阵": 7620, "泛@@": 7621, "献": 7622, "汗": 7623, "理念": 7624, "贤@@": 7625, "消防员": 7626, "租金": 7627, "办公楼": 7628, "省纪委": 7629, "困@@": 7630, "倒塌": 7631, "节奏": 7632, "冰毒": 7633, "严肃": 7634, "官方网站": 7635, "商铺": 7636, "酷@@": 7637, "风力": 7638, "冤@@": 7639, "些@@": 7640, "呼吸@@": 7641, "途": 7642, "趋@@": 7643, "店主": 7644, "分类": 7645, "没法": 7646, "歹徒": 7647, "严禁": 7648, "大批": 7649, "配资": 7650, "周五": 7651, "业内": 7652, "低调": 7653, "早报": 7654, "开会": 7655, "水中": 7656, "落户": 7657, "外援": 7658, "士兵": 7659, "动物园": 7660, "南北": 7661, "审判@@": 7662, "株@@": 7663, "值@@": 7664, "情报": 7665, "大米": 7666, "住处": 7667, "负有": 7668, "全场": 7669, "厅长": 7670, "抵押": 7671, "困境": 7672, "打入": 7673, "贵阳": 7674, "李小@@": 7675, "职能": 7676, "版@@": 7677, "幼儿": 7678, "外围": 7679, "乡村": 7680, "只见": 7681, "污染物": 7682, "下达": 7683, "今年@@": 7684, "悦": 7685, "邓某": 7686, "盆": 7687, "萌@@": 7688, "入市": 7689, "余人": 7690, "两罚": 7691, "上篮": 7692, "西南": 7693, "屡@@": 7694, "吐": 7695, "幢": 7696, "歼": 7697, "兼任": 7698, "楠": 7699, "吵@@": 7700, "首节": 7701, "内外": 7702, "实体": 7703, "果断": 7704, "涂@@": 7705, "哈登": 7706, "姚": 7707, "捐献": 7708, "妇": 7709, "逃离": 7710, "水利@@": 7711, "壤": 7712, "可达": 7713, "密集": 7714, "凡@@": 7715, "人工": 7716, "河道": 7717, "降雨量": 7718, "登录": 7719, "从此": 7720, "绕@@": 7721, "诉求": 7722, "沿着": 7723, "追踪": 7724, "时说": 7725, "1200": 7726, "四五@@": 7727, "羽@@": 7728, "签下": 7729, "捷@@": 7730, "好心人": 7731, "强度": 7732, "收回": 7733, "清晨": 7734, "毅@@": 7735, "送医": 7736, "渔@@": 7737, "草案": 7738, "晶@@": 7739, "浪@@": 7740, "终止": 7741, "金华": 7742, "卧室": 7743, "安德@@": 7744, "上调": 7745, "督促": 7746, "酒精": 7747, "拔": 7748, "戒@@": 7749, "番": 7750, "谢谢": 7751, "尔斯": 7752, "横": 7753, "窃": 7754, "常见": 7755, "思考": 7756, "发动机": 7757, "贯": 7758, "等候": 7759, "伪@@": 7760, "局局长": 7761, "冠": 7762, "滚": 7763, "所致": 7764, "实验室": 7765, "涨停": 7766, "观念": 7767, "淘宝": 7768, "难道": 7769, "人事@@": 7770, "裤子": 7771, "治病": 7772, "lo@@": 7773, "冥王星": 7774, "结果显示": 7775, "单元": 7776, "见状": 7777, "业务@@": 7778, "黄河": 7779, "最高人民法院": 7780, "疏散": 7781, "退休@@": 7782, "吸收": 7783, "醉@@": 7784, "打伤": 7785, "限行": 7786, "扑灭": 7787, "胸部": 7788, "鸡蛋": 7789, "奥迪": 7790, "唱@@": 7791, "收获": 7792, "淘汰": 7793, "问责": 7794, "供认不讳": 7795, "路况": 7796, "1998": 7797, "批复": 7798, "充分@@": 7799, "落水": 7800, "贵州省": 7801, "石化": 7802, "番@@": 7803, "两岸": 7804, "配偶": 7805, "艰@@": 7806, "扬州": 7807, "国防@@": 7808, "会见": 7809, "优先": 7810, "建业": 7811, "芝": 7812, "立场": 7813, "教育@@": 7814, "规律": 7815, "废": 7816, "前一天": 7817, "常规": 7818, "开支": 7819, "一记": 7820, "拉斯": 7821, "旋@@": 7822, "四川@@": 7823, "聘@@": 7824, "起初": 7825, "贺": 7826, "首批": 7827, "水位": 7828, "伍": 7829, "织": 7830, "通告": 7831, "延": 7832, "缩小": 7833, "要钱": 7834, "一举": 7835, "外交": 7836, "失控": 7837, "站台": 7838, "收盘": 7839, "思路": 7840, "烈士": 7841, "股指": 7842, "马某": 7843, "乔丹": 7844, "不知情": 7845, "沧@@": 7846, "内心": 7847, "努@@": 7848, "如实": 7849, "赃款": 7850, "约束": 7851, "蒸@@": 7852, "绿城": 7853, "鹤@@": 7854, "醒@@": 7855, "授@@": 7856, "记者会": 7857, "农田": 7858, "婚后": 7859, "三亚": 7860, "击中": 7861, "伸@@": 7862, "im@@": 7863, "始": 7864, "入学": 7865, "顾问": 7866, "性关系": 7867, "心态": 7868, "好事": 7869, "惊讶": 7870, "登上": 7871, "侧@@": 7872, "资源@@": 7873, "官场": 7874, "赵本山": 7875, "冬": 7876, "荷兰": 7877, "播放": 7878, "ktv": 7879, "主张": 7880, "临近": 7881, "用车": 7882, "彼@@": 7883, "眼泪": 7884, "车票": 7885, "把握": 7886, "泊": 7887, "70%": 7888, "返还": 7889, "中华": 7890, "皇": 7891, "中称": 7892, "五一": 7893, "捐赠": 7894, "脉": 7895, "偶尔": 7896, "1.2": 7897, "打架": 7898, "黄先生": 7899, "un@@": 7900, "儿女": 7901, "幸运": 7902, "燃烧": 7903, "所属": 7904, "商业银行": 7905, "海南省": 7906, "创始人": 7907, "re@@": 7908, "注册@@": 7909, "仔": 7910, "某些": 7911, "开着": 7912, "罗斯": 7913, "山东@@": 7914, "味道": 7915, "腔": 7916, "细": 7917, "坚定": 7918, "等级": 7919, "安慰": 7920, "法案": 7921, "足以": 7922, "工商": 7923, "拓展": 7924, "文学": 7925, "16.@@": 7926, "干扰": 7927, "入口": 7928, "多地": 7929, "船只": 7930, "构建": 7931, "厂@@": 7932, "序@@": 7933, "为期": 7934, "扰乱": 7935, "扩散": 7936, "肠@@": 7937, "色情": 7938, "石油@@": 7939, "佩": 7940, "甚@@": 7941, "一大@@": 7942, "青少年": 7943, "锋@@": 7944, "这张": 7945, "根本@@": 7946, "昂": 7947, "下旬": 7948, "他家": 7949, "就诊": 7950, "概@@": 7951, "罪犯": 7952, "缓刑": 7953, "恐怖": 7954, "跨": 7955, "擅自": 7956, "踩@@": 7957, "人身@@": 7958, "小男孩": 7959, "庞大": 7960, "列为": 7961, "不太": 7962, "国会": 7963, "上赛季": 7964, "超越": 7965, "村庄": 7966, "飘@@": 7967, "放缓": 7968, "巡查": 7969, "狼": 7970, "袁": 7971, "扩张": 7972, "科比": 7973, "绿": 7974, "国道": 7975, "中东": 7976, "马尔": 7977, "第三次": 7978, "据此": 7979, "镜@@": 7980, "监察": 7981, "队友": 7982, "觉@@": 7983, "炳@@": 7984, "工委": 7985, "椅": 7986, "流动": 7987, "开具": 7988, "棋": 7989, "种种": 7990, "增长@@": 7991, "看好": 7992, "气愤": 7993, "玉林": 7994, "斜@@": 7995, "缝@@": 7996, "解救": 7997, "蒋": 7998, "7000": 7999, "迷": 8000, "钱财": 8001, "礼物": 8002, "防卫": 8003, "伤员": 8004, "江西@@": 8005, "腹部": 8006, "不力": 8007, "履@@": 8008, "狐": 8009, "客运": 8010, "上将": 8011, "湖区": 8012, "不高": 8013, "退役": 8014, "新城": 8015, "疼痛": 8016, "袖": 8017, "泄漏": 8018, "妻@@": 8019, "异地": 8020, "水县": 8021, "媛": 8022, "恐慌": 8023, "j": 8024, "执行@@": 8025, "102": 8026, "记载": 8027, "开盘": 8028, "构@@": 8029, "揽": 8030, "念头": 8031, "英超": 8032, "两条": 8033, "走廊": 8034, "投票": 8035, "何时": 8036, "莉@@": 8037, "不服": 8038, "气象局": 8039, "警戒线": 8040, "骗子": 8041, "作案@@": 8042, "零售": 8043, "2020": 8044, "疯@@": 8045, "插": 8046, "警惕": 8047, "强降雨": 8048, "昌市": 8049, "供水": 8050, "转入": 8051, "臂": 8052, "暗": 8053, "雷达": 8054, "而来": 8055, "去向": 8056, "副县长": 8057, "实施@@": 8058, "资深": 8059, "追问": 8060, "会谈": 8061, "管理处": 8062, "增多": 8063, "糊@@": 8064, "递@@": 8065, "发生爆炸": 8066, "机器人": 8067, "前场": 8068, "鸟@@": 8069, "达标": 8070, "防暑降温": 8071, "1999": 8072, "毁@@": 8073, "ip@@": 8074, "疗": 8075, "17.@@": 8076, "生气": 8077, "太空": 8078, "轩": 8079, "说出": 8080, "者@@": 8081, "第三节": 8082, "有钱": 8083, "起床": 8084, "挡@@": 8085, "闽@@": 8086, "句@@": 8087, "全是": 8088, "上岸": 8089, "以内": 8090, "荷@@": 8091, "碧@@": 8092, "缝": 8093, "场合": 8094, "动态": 8095, "唯@@": 8096, "古城": 8097, "体征": 8098, "垫": 8099, "生存": 8100, "下方": 8101, "经营者": 8102, "玛": 8103, "so@@": 8104, "烧烤": 8105, "大跌": 8106, "亏": 8107, "彭": 8108, "坡@@": 8109, "阿森纳": 8110, "提拔": 8111, "院士": 8112, "汽": 8113, "号楼": 8114, "营运": 8115, "雕@@": 8116, "汉能": 8117, "扮": 8118, "激": 8119, "添@@": 8120, "飞行员": 8121, "铲@@": 8122, "餐馆": 8123, "鬼": 8124, "常年": 8125, "加油站": 8126, "利亚@@": 8127, "昂@@": 8128, "值得注意": 8129, "il@@": 8130, "走失": 8131, "对不起": 8132, "捡@@": 8133, "吹": 8134, "承": 8135, "台州": 8136, "ps": 8137, "吕": 8138, "牵头": 8139, "本节": 8140, "什@@": 8141, "白酒": 8142, "愤怒": 8143, "特大": 8144, "新高": 8145, "支付宝": 8146, "两人@@": 8147, "龟": 8148, "开局": 8149, "受害": 8150, "扳@@": 8151, "美女": 8152, "吸烟": 8153, "抗日": 8154, "炸弹": 8155, "一轮": 8156, "基金会": 8157, "这边": 8158, "索赔": 8159, "每股": 8160, "科目": 8161, "量刑": 8162, "海口市": 8163, "拼": 8164, "国有资产": 8165, "好多": 8166, "奇怪": 8167, "高官": 8168, "产品@@": 8169, "一代": 8170, "io@@": 8171, "忘@@": 8172, "握@@": 8173, "央@@": 8174, "民事@@": 8175, "通讯": 8176, "产能": 8177, "国民党": 8178, "身着": 8179, "肯": 8180, "延伸": 8181, "沿线": 8182, "吵": 8183, "残骸": 8184, "畅": 8185, "圣": 8186, "教学": 8187, "鼎@@": 8188, "三十@@": 8189, "捉@@": 8190, "大大@@": 8191, "环球时报": 8192, "呈@@": 8193, "斑@@": 8194, "前锋": 8195, "损@@": 8196, "一把手": 8197, "磁@@": 8198, "管辖": 8199, "泸州": 8200, "兴奋": 8201, "创下": 8202, "行程": 8203, "一律": 8204, "放下": 8205, "我家": 8206, "锐": 8207, "瘦": 8208, "实习": 8209, "法律责任": 8210, "茨": 8211, "机械": 8212, "案发现场": 8213, "严格@@": 8214, "吵架": 8215, "邮件": 8216, "出面": 8217, "刊@@": 8218, "反恐": 8219, "硕士": 8220, "联邦": 8221, "调侃": 8222, "乌": 8223, "太平洋": 8224, "似@@": 8225, "薇": 8226, "信阳市": 8227, "项@@": 8228, "常务副": 8229, "策划": 8230, "练@@": 8231, "纯": 8232, "下载": 8233, "收费站": 8234, "幻@@": 8235, "区间": 8236, "研制": 8237, "中石化": 8238, "霸": 8239, "二胎": 8240, "政治部": 8241, "成交量": 8242, "固": 8243, "江苏@@": 8244, "验证": 8245, "暑": 8246, "一本": 8247, "同步": 8248, "处在": 8249, "拐": 8250, "野猪": 8251, "舒服": 8252, "支行": 8253, "这块": 8254, "自来水": 8255, "企业家": 8256, "胸": 8257, "检疫": 8258, "申购": 8259, "贝": 8260, "隔壁": 8261, "主导": 8262, "纹": 8263, "下楼": 8264, "服务中心": 8265, "行政处罚": 8266, "学家": 8267, "侦查@@": 8268, "青海": 8269, "大面积": 8270, "姿@@": 8271, "20.@@": 8272, "130": 8273, "钢铁": 8274, "着火": 8275, "必然": 8276, "禅@@": 8277, "院方": 8278, "闫@@": 8279, "医疗机构": 8280, "2017": 8281, "姑@@": 8282, "乔": 8283, "命运": 8284, "契@@": 8285, "陶": 8286, "炒": 8287, "特定": 8288, "管理人员": 8289, "向东": 8290, "串@@": 8291, "屏@@": 8292, "讯问": 8293, "乃至": 8294, "工会": 8295, "一中": 8296, "织@@": 8297, "蹲@@": 8298, "性能": 8299, "徐州": 8300, "房门": 8301, "系统@@": 8302, "领土": 8303, "智慧": 8304, "男婴": 8305, "小红": 8306, "改为": 8307, "36@@": 8308, "出色": 8309, "中国人民@@": 8310, "id@@": 8311, "场面": 8312, "放假": 8313, "卫生间": 8314, "假币": 8315, "使用@@": 8316, "车型": 8317, "龚": 8318, "庞@@": 8319, "明确@@": 8320, "中华@@": 8321, "叔叔": 8322, "封锁": 8323, "公牛": 8324, "卓": 8325, "不通": 8326, "仙": 8327, "区别": 8328, "游玩": 8329, "责@@": 8330, "受灾": 8331, "赶赴": 8332, "900": 8333, "婴": 8334, "战斗机": 8335, "多米": 8336, "来讲": 8337, "消防@@": 8338, "暴露": 8339, "疫情": 8340, "参谋长": 8341, "垄断": 8342, "蓄@@": 8343, "左脚": 8344, "产量": 8345, "卫国": 8346, "介": 8347, "强奸罪": 8348, "回购": 8349, "未有": 8350, "识": 8351, "一口": 8352, "多久": 8353, "后经": 8354, "称号": 8355, "中共中央": 8356, "周四": 8357, "居民楼": 8358, "指挥@@": 8359, "查办": 8360, "东海": 8361, "器官": 8362, "寻": 8363, "可爱": 8364, "忍": 8365, "批次": 8366, "妮": 8367, "暴恐": 8368, "据说": 8369, "土地@@": 8370, "电网": 8371, "盆@@": 8372, "流入": 8373, "15%": 8374, "子公司": 8375, "扣押": 8376, "鸣@@": 8377, "肺": 8378, "批准逮捕": 8379, "最长": 8380, "安抚": 8381, "罢@@": 8382, "副校长": 8383, "鹏@@": 8384, "有过": 8385, "就读": 8386, "隐私": 8387, "差异": 8388, "情感": 8389, "卖掉": 8390, "法制@@": 8391, "研": 8392, "进步": 8393, "柴油": 8394, "虽@@": 8395, "货币政策": 8396, "奶粉": 8397, "网讯": 8398, "刑": 8399, "秦": 8400, "注射": 8401, "淘@@": 8402, "dna": 8403, "下游": 8404, "吐槽": 8405, "比亚": 8406, "缺少": 8407, "募": 8408, "渠": 8409, "虾": 8410, "升任": 8411, "尿": 8412, "宁夏": 8413, "报考": 8414, "常州": 8415, "4g": 8416, "植物": 8417, "广东@@": 8418, "兰州市": 8419, "承受": 8420, "滑坡": 8421, "挫": 8422, "抢走": 8423, "不准": 8424, "甜@@": 8425, "组织@@": 8426, "推测": 8427, "卢": 8428, "喀@@": 8429, "南县": 8430, "恋情": 8431, "诉讼@@": 8432, "卖出": 8433, "顿@@": 8434, "诈骗罪": 8435, "转账": 8436, "仔@@": 8437, "存放": 8438, "硬件": 8439, "美丽": 8440, "儿媳": 8441, "操作@@": 8442, "泡沫": 8443, "惩@@": 8444, "市公安局": 8445, "黄金@@": 8446, "历任": 8447, "细则": 8448, "正义": 8449, "餐饮": 8450, "不然": 8451, "昆明市": 8452, "筒": 8453, "港元": 8454, "翼@@": 8455, "坊": 8456, "围墙": 8457, "监察部": 8458, "接听": 8459, "野生": 8460, "深入@@": 8461, "瘾": 8462, "辗转": 8463, "争执": 8464, "次数": 8465, "摆脱": 8466, "阿根廷": 8467, "海市": 8468, "例行": 8469, "存量": 8470, "鉴@@": 8471, "愈": 8472, "分歧": 8473, "跪": 8474, "炎@@": 8475, "霖": 8476, "腐": 8477, "火势": 8478, "菌": 8479, "马拉@@": 8480, "指着": 8481, "不变": 8482, "一脚": 8483, "时机": 8484, "预约": 8485, "付款": 8486, "并购": 8487, "穷": 8488, "消防车": 8489, "头条": 8490, "精选": 8491, "亏@@": 8492, "护照": 8493, "最低@@": 8494, "竞争力": 8495, "监护人": 8496, "鹈鹕": 8497, "南昌市": 8498, "标识": 8499, "链@@": 8500, "18.@@": 8501, "遍@@": 8502, "经商": 8503, "午后": 8504, "涂": 8505, "津贴": 8506, "咸@@": 8507, "销售额": 8508, "本科": 8509, "宽松": 8510, "新疆@@": 8511, "建国": 8512, "紧急@@": 8513, "出让": 8514, "芳@@": 8515, "半夜": 8516, "宗教": 8517, "踢@@": 8518, "露天": 8519, "迟@@": 8520, "猝死": 8521, "签证": 8522, "序": 8523, "比重": 8524, "老鹰": 8525, "那种": 8526, "斯坦": 8527, "诺基亚": 8528, "酒吧": 8529, "日元": 8530, "提名": 8531, "加之": 8532, "演讲": 8533, "交易日": 8534, "盲@@": 8535, "局势": 8536, "门槛": 8537, "防空": 8538, "径": 8539, "读者": 8540, "烤@@": 8541, "宪法": 8542, "联通": 8543, "东县": 8544, "打听": 8545, "漏": 8546, "抚养费": 8547, "三分球": 8548, "面向": 8549, "侦办": 8550, "胃": 8551, "收缴": 8552, "误": 8553, "班子": 8554, "区委": 8555, "续": 8556, "聚会": 8557, "选拔": 8558, "大学@@": 8559, "干活": 8560, "裔": 8561, "记忆": 8562, "和谐": 8563, "土耳其": 8564, "有助于": 8565, "瓷@@": 8566, "占用": 8567, "班级": 8568, "相处": 8569, "房东": 8570, "有意": 8571, "重庆@@": 8572, "人人": 8573, "紧接着": 8574, "姜": 8575, "涨价": 8576, "皇家": 8577, "ed@@": 8578, "中日": 8579, "科学院": 8580, "辩护人": 8581, "浪费": 8582, "眼里": 8583, "19.@@": 8584, "墙上": 8585, "重建": 8586, "浦": 8587, "提供@@": 8588, "饮料": 8589, "炉": 8590, "肾@@": 8591, "精": 8592, "廖": 8593, "坚": 8594, "谅解": 8595, "细胞": 8596, "新生": 8597, "收藏": 8598, "深圳@@": 8599, "壁@@": 8600, "辛": 8601, "水质": 8602, "据称": 8603, "合力": 8604, "下列": 8605, "国产": 8606, "倾向": 8607, "着手": 8608, "拖欠": 8609, "热门": 8610, "舟@@": 8611, "途经": 8612, "提议": 8613, "商务": 8614, "拜仁": 8615, "中断": 8616, "劣@@": 8617, "民事": 8618, "交锋": 8619, "财经@@": 8620, "高空": 8621, "李晨": 8622, "绩@@": 8623, "发掘": 8624, "建筑物": 8625, "时至": 8626, "录音": 8627, "边境": 8628, "严厉": 8629, "惊": 8630, "览@@": 8631, "不良": 8632, "平静": 8633, "新娘": 8634, "衷": 8635, "新兴": 8636, "作家": 8637, "撞击": 8638, "克里@@": 8639, "报纸": 8640, "滋@@": 8641, "缓慢": 8642, "伤亡": 8643, "身影": 8644, "伏@@": 8645, "钞": 8646, "秘@@": 8647, "社会主义": 8648, "西路": 8649, "凶": 8650, "广州@@": 8651, "多天": 8652, "降准": 8653, "营养": 8654, "遗产": 8655, "随时随地": 8656, "歌曲": 8657, "干部@@": 8658, "饿": 8659, "丘": 8660, "负责@@": 8661, "怡": 8662, "印度@@": 8663, "侵权": 8664, "师范大学": 8665, "讯@@": 8666, "客观": 8667, "破裂": 8668, "上方": 8669, "印发": 8670, "刚好": 8671, "本届": 8672, "层次": 8673, "高级人民法院": 8674, "大哥": 8675, "套房": 8676, "娶": 8677, "德军": 8678, "垫@@": 8679, "提问": 8680, "恶化": 8681, "宅": 8682, "注明": 8683, "第二节": 8684, "打死": 8685, "仿": 8686, "灾区": 8687, "人工@@": 8688, "领导班子": 8689, "析": 8690, "不下": 8691, "陌生人": 8692, "除此之外": 8693, "般": 8694, "美方": 8695, "本网": 8696, "商标": 8697, "交警支队": 8698, "在意": 8699, "中超": 8700, "加油": 8701, "氧": 8702, "管控": 8703, "仗": 8704, "每周": 8705, "度过": 8706, "指令": 8707, "采写": 8708, "位列": 8709, "刑事案件": 8710, "演练": 8711, "意图": 8712, "荣华": 8713, "引入": 8714, "碎片": 8715, "不仅仅": 8716, "15.@@": 8717, "第六@@": 8718, "两侧": 8719, "叙利亚": 8720, "测算": 8721, "抱怨": 8722, "怎么样": 8723, "扔@@": 8724, "桂林": 8725, "倪@@": 8726, "四大": 8727, "气象@@": 8728, "吻": 8729, "扳平": 8730, "战术": 8731, "之星": 8732, "贩卖": 8733, "180": 8734, "蓝": 8735, "三位": 8736, "灭火": 8737, "华润": 8738, "核准": 8739, "北青报": 8740, "替@@": 8741, "斯特": 8742, "吴先生": 8743, "女婿": 8744, "犯罪@@": 8745, "验收": 8746, "恶": 8747, "拘@@": 8748, "105": 8749, "am@@": 8750, "证券公司": 8751, "晴": 8752, "校区": 8753, "彻@@": 8754, "弯@@": 8755, "林业局": 8756, "匹@@": 8757, "坎@@": 8758, "养殖": 8759, "马云": 8760, "慈善": 8761, "奎@@": 8762, "刘强": 8763, "听取": 8764, "不去": 8765, "尘@@": 8766, "谴责": 8767, "搭建": 8768, "葬@@": 8769, "屈@@": 8770, "奇才": 8771, "多达": 8772, "不及": 8773, "义乌": 8774, "侧翻": 8775, "协警": 8776, "逃犯": 8777, "潜在": 8778, "这部": 8779, "结婚证": 8780, "机器": 8781, "车身": 8782, "挫@@": 8783, "骂@@": 8784, "黑车": 8785, "it": 8786, "用人单位": 8787, "耐心": 8788, "no@@": 8789, "泡@@": 8790, "ac": 8791, "罪行": 8792, "影视": 8793, "尸检": 8794, "党中央": 8795, "雷斯": 8796, "骚扰": 8797, "就让": 8798, "夕": 8799, "周二": 8800, "先行": 8801, "副总裁": 8802, "罩": 8803, "35@@": 8804, "北方": 8805, "犹@@": 8806, "厉害": 8807, "知情者": 8808, "曝出": 8809, "泼": 8810, "无罪": 8811, "妥善@@": 8812, "澄清": 8813, "时速": 8814, "交通管理": 8815, "党员干部": 8816, "隐瞒": 8817, "西亚": 8818, "曹某": 8819, "传递": 8820, "血压": 8821, "高速@@": 8822, "重复": 8823, "运动@@": 8824, "框架": 8825, "向上": 8826, "渝": 8827, "上传": 8828, "尺@@": 8829, "添加": 8830, "遏制": 8831, "发文": 8832, "服刑": 8833, "奎": 8834, "信贷": 8835, "猎": 8836, "商品@@": 8837, "嫖娼": 8838, "外交@@": 8839, "眼看": 8840, "浑身": 8841, "人选": 8842, "投篮": 8843, "便是": 8844, "俞@@": 8845, "残疾": 8846, "革命": 8847, "猪肉": 8848, "发达": 8849, "蔓延": 8850, "前景": 8851, "誉": 8852, "眼中": 8853, "一艘": 8854, "变形": 8855, "一手": 8856, "发送": 8857, "举报人": 8858, "考验": 8859, "峡@@": 8860, "专用": 8861, "肌@@": 8862, "洪水": 8863, "开房": 8864, "值得一提的是": 8865, "app": 8866, "诊@@": 8867, "德拉": 8868, "抢断": 8869, "挽@@": 8870, "鼻": 8871, "湿": 8872, "真实性": 8873, "平县": 8874, "模": 8875, "陈述": 8876, "厂房": 8877, "生效": 8878, "采": 8879, "跌停": 8880, "帝@@": 8881, "郁@@": 8882, "联社": 8883, "多项": 8884, "弘@@": 8885, "全世界": 8886, "勘察": 8887, "转向": 8888, "小雨": 8889, "蚁": 8890, "辞@@": 8891, "隙": 8892, "挣@@": 8893, "长安": 8894, "禁毒": 8895, "集中@@": 8896, "杭@@": 8897, "红灯": 8898, "革@@": 8899, "神经": 8900, "运动员": 8901, "夸@@": 8902, "图书馆": 8903, "鹿@@": 8904, "岳": 8905, "共享": 8906, "applewatch": 8907, "进出": 8908, "硕@@": 8909, "一个多月": 8910, "发球": 8911, "呕吐": 8912, "综合征": 8913, "耐@@": 8914, "集团军": 8915, "悉@@": 8916, "被捕": 8917, "大队长": 8918, "邮报": 8919, "美好": 8920, "热心": 8921, "万科": 8922, "饼": 8923, "门票": 8924, "佐@@": 8925, "火星": 8926, "输送": 8927, "齐鲁": 8928, "亡@@": 8929, "入选": 8930, "利物浦": 8931, "渗@@": 8932, "发电": 8933, "幼女": 8934, "1997": 8935, "惊人": 8936, "一股": 8937, "淋@@": 8938, "平日": 8939, "退还": 8940, "保罗": 8941, "嫖@@": 8942, "抢险": 8943, "暗访": 8944, "全新": 8945, "全国政协": 8946, "乾@@": 8947, "效益": 8948, "国有@@": 8949, "湿@@": 8950, "双胞胎": 8951, "刮@@": 8952, "通车": 8953, "跨境": 8954, "首轮": 8955, "万亿": 8956, "车间": 8957, "储": 8958, "高院": 8959, "急忙": 8960, "晋升": 8961, "灰色": 8962, "太原市": 8963, "bo@@": 8964, "口中": 8965, "临床": 8966, "异议": 8967, "凌": 8968, "全家": 8969, "大涨": 8970, "长城": 8971, "取证": 8972, "出击": 8973, "过错": 8974, "简直": 8975, "取得联系": 8976, "重度": 8977, "官司": 8978, "师生": 8979, "委屈": 8980, "芯片": 8981, "一会": 8982, "药店": 8983, "泥": 8984, "肿瘤": 8985, "查找": 8986, "那边": 8987, "响应": 8988, "难以@@": 8989, "县公安局": 8990, "绕": 8991, "防治": 8992, "发布公告": 8993, "血管": 8994, "狠": 8995, "入院": 8996, "恐怕": 8997, "鳄鱼": 8998, "入境": 8999, "典@@": 9000, "有所@@": 9001, "词@@": 9002, "1.8": 9003, "宣称": 9004, "卫生院": 9005, "代价": 9006, "惠州市": 9007, "嫌": 9008, "自贸区": 9009, "靖": 9010, "借贷": 9011, "二代": 9012, "小玲": 9013, "公益@@": 9014, "屋里": 9015, "肿@@": 9016, "娇": 9017, "乌鲁木齐": 9018, "塑料袋": 9019, "受访者": 9020, "在职": 9021, "化解": 9022, "两只": 9023, "进而": 9024, "急救车": 9025, "刹车": 9026, "肠": 9027, "保证金": 9028, "海峡": 9029, "总会": 9030, "金山": 9031, "驰": 9032, "实业": 9033, "纪律处分": 9034, "行李": 9035, "该名": 9036, "战略@@": 9037, "发现自己": 9038, "表示@@": 9039, "十二届": 9040, "上游": 9041, "棚@@": 9042, "民航": 9043, "目击": 9044, "巡警": 9045, "公共场所": 9046, "万多": 9047, "1996": 9048, "莓": 9049, "辽宁@@": 9050, "妹@@": 9051, "马尔@@": 9052, "柜台": 9053, "拿走": 9054, "不利": 9055, "升至": 9056, "小轿车": 9057, "辱骂": 9058, "关系@@": 9059, "家门口": 9060, "不顾": 9061, "司长": 9062, "障": 9063, "颈部": 9064, "库里": 9065, "大碍": 9066, "杯@@": 9067, "玩具": 9068, "桩": 9069, "并报": 9070, "25%": 9071, "送来": 9072, "逊": 9073, "两辆": 9074, "运送": 9075, "迄@@": 9076, "为止": 9077, "半岛": 9078, "愿@@": 9079, "关机": 9080, "革": 9081, "申诉": 9082, "38@@": 9083, "思维": 9084, "逆转": 9085, "军工": 9086, "缩短": 9087, "求证": 9088, "挣钱": 9089, "奔驰": 9090, "安区": 9091, "国王": 9092, "一侧": 9093, "大片": 9094, "霍": 9095, "攻势": 9096, "镇上": 9097, "新快报": 9098, "本场": 9099, "几百@@": 9100, "孕@@": 9101, "天空": 9102, "加剧": 9103, "出境": 9104, "著@@": 9105, "跃": 9106, "降温": 9107, "采集": 9108, "华为": 9109, "困": 9110, "接报": 9111, "负面": 9112, "发生争执": 9113, "自觉": 9114, "听见": 9115, "捞": 9116, "极其": 9117, "人气": 9118, "政策@@": 9119, "士学位": 9120, "悄悄": 9121, "邪@@": 9122, "皇帝": 9123, "沪@@": 9124, "90%": 9125, "见义勇为": 9126, "4s店": 9127, "炒@@": 9128, "力争": 9129, "疏导": 9130, "新一轮": 9131, "走路": 9132, "160": 9133, "人力资源": 9134, "医疗费": 9135, "以免": 9136, "企图": 9137, "浴@@": 9138, "培训@@": 9139, "暂": 9140, "100@@": 9141, "轻微": 9142, "屠@@": 9143, "莫迪": 9144, "减刑": 9145, "黄牛": 9146, "工友": 9147, "仅为": 9148, "萌": 9149, "想不到": 9150, "忙@@": 9151, "何某": 9152, "青春": 9153, "解围": 9154, "漳州": 9155, "铁路局": 9156, "周先生": 9157, "祭@@": 9158, "培": 9159, "民房": 9160, "完美": 9161, "边防": 9162, "一身": 9163, "夫人": 9164, "车窗": 9165, "河南@@": 9166, "清醒": 9167, "美容": 9168, "氧化@@": 9169, "癌症": 9170, "警员": 9171, "却@@": 9172, "狮@@": 9173, "顿时": 9174, "追成": 9175, "嘉": 9176, "边界": 9177, "100%": 9178, "巾": 9179, "赌场": 9180, "住宿": 9181, "化石": 9182, "电线": 9183, "南非": 9184, "覆@@": 9185, "慌": 9186, "异物": 9187, "水管": 9188, "偿@@": 9189, "舰队": 9190, "逝@@": 9191, "标签": 9192, "斯特@@": 9193, "动漫": 9194, "分成": 9195, "赚@@": 9196, "理财": 9197, "沙漠": 9198, "蓉": 9199, "大大": 9200, "人民代表@@": 9201, "氧@@": 9202, "小学生": 9203, "正当@@": 9204, "无人@@": 9205, "结构@@": 9206, "兽@@": 9207, "媒称": 9208, "还原": 9209, "县长": 9210, "纺@@": 9211, "ab@@": 9212, "两大": 9213, "原有": 9214, "汕@@": 9215, "初期": 9216, "专": 9217, "终端": 9218, "日方": 9219, "高等@@": 9220, "好处": 9221, "计生": 9222, "碰": 9223, "陆军": 9224, "贩@@": 9225, "旅馆": 9226, "域@@": 9227, "汪": 9228, "坚强": 9229, "社会保障": 9230, "银行业": 9231, "乞讨": 9232, "喂": 9233, "玄@@": 9234, "琼": 9235, "国家级": 9236, "发给": 9237, "未成年": 9238, "刑事@@": 9239, "两国@@": 9240, "匆匆": 9241, "慰@@": 9242, "门诊": 9243, "一颗": 9244, "刚才": 9245, "发来": 9246, "依赖": 9247, "韩国@@": 9248, "中年": 9249, "更名": 9250, "论文": 9251, "客运@@": 9252, "校车": 9253, "详@@": 9254, "纠正": 9255, "沈阳市": 9256, "碾@@": 9257, "早前": 9258, "无果": 9259, "劫@@": 9260, "东路": 9261, "流通": 9262, "女婴": 9263, "材@@": 9264, "法拉利": 9265, "会同": 9266, "1995": 9267, "代表@@": 9268, "颜": 9269, "复出": 9270, "一顿": 9271, "哀@@": 9272, "过多": 9273, "订": 9274, "好奇": 9275, "生涯": 9276, "赠@@": 9277, "捧": 9278, "人质": 9279, "核电": 9280, "夺冠": 9281, "侠": 9282, "献血": 9283, "辩": 9284, "冒充": 9285, "保管": 9286, "往年": 9287, "闯入": 9288, "出入": 9289, "担当": 9290, "口角": 9291, "110@@": 9292, "川县": 9293, "规划@@": 9294, "籍@@": 9295, "冲动": 9296, "寿": 9297, "四人": 9298, "潇@@": 9299, "版权": 9300, "中文": 9301, "衡阳市": 9302, "蓬@@": 9303, "强迫": 9304, "一辈子": 9305, "基本@@": 9306, "布拉@@": 9307, "资助": 9308, "高某": 9309, "继承": 9310, "伪": 9311, "分行": 9312, "违建": 9313, "得出": 9314, "现已": 9315, "竟@@": 9316, "不成": 9317, "竟是": 9318, "候选人": 9319, "皆": 9320, "本金": 9321, "远射": 9322, "商务@@": 9323, "符": 9324, "挣扎": 9325, "勋": 9326, "调度": 9327, "虫@@": 9328, "第四节": 9329, "成效": 9330, "英国@@": 9331, "谈及": 9332, "旺": 9333, "受益": 9334, "故意伤害罪": 9335, "绝大多数": 9336, "死因": 9337, "平常": 9338, "县级": 9339, "尼泊尔": 9340, "海洋@@": 9341, "一生": 9342, "征求意见": 9343, "一刻": 9344, "体育讯": 9345, "希尔": 9346, "楼梯": 9347, "景点": 9348, "缠": 9349, "状@@": 9350, "大额": 9351, "ur@@": 9352, "服务业": 9353, "稻": 9354, "赵晋": 9355, "上个月": 9356, "科员": 9357, "降幅": 9358, "低迷": 9359, "慎@@": 9360, "借助": 9361, "收受贿赂": 9362, "没事": 9363, "作文": 9364, "2500": 9365, "sh@@": 9366, "巷@@": 9367, "获救": 9368, "开拓者": 9369, "缅@@": 9370, "公诉人": 9371, "随便": 9372, "电子商务": 9373, "会长": 9374, "虹@@": 9375, "衡阳": 9376, "管理中心": 9377, "济南市": 9378, "周三": 9379, "中医院": 9380, "艾滋病": 9381, "柏": 9382, "灿@@": 9383, "饱@@": 9384, "帅@@": 9385, "点评": 9386, "廷": 9387, "枝@@": 9388, "造假": 9389, "欧冠": 9390, "高新区": 9391, "辩护": 9392, "不堪": 9393, "大使馆": 9394, "平等": 9395, "电台": 9396, "天津港": 9397, "救灾": 9398, "促@@": 9399, "绝不": 9400, "专题": 9401, "还款": 9402, "岭@@": 9403, "地质@@": 9404, "散落": 9405, "厢": 9406, "延安": 9407, "刑警大队": 9408, "躁": 9409, "份额": 9410, "医师": 9411, "写下": 9412, "探访": 9413, "而已": 9414, "双双": 9415, "车里": 9416, "募集": 9417, "绘": 9418, "情况@@": 9419, "箭@@": 9420, "怨": 9421, "认同": 9422, "首位": 9423, "分数": 9424, "养殖@@": 9425, "对接": 9426, "兼职": 9427, "故宫": 9428, "悄@@": 9429, "十余@@": 9430, "患病": 9431, "错过": 9432, "总计": 9433, "探测": 9434, "界面": 9435, "保密": 9436, "院校": 9437, "该国": 9438, "离去": 9439, "一眼": 9440, "用人": 9441, "躲避": 9442, "mi@@": 9443, "谎称": 9444, "侮辱": 9445, "衣物": 9446, "中山@@": 9447, "上衣": 9448, "糖@@": 9449, "实时": 9450, "大巴": 9451, "授予": 9452, "来往": 9453, "追捕": 9454, "停职": 9455, "礁": 9456, "三家": 9457, "顽@@": 9458, "用途": 9459, "食品安全": 9460, "后方": 9461, "企业@@": 9462, "晕": 9463, "分开": 9464, "命令": 9465, "关节": 9466, "辐射": 9467, "离家": 9468, "感慨": 9469, "自卫队": 9470, "国企改革": 9471, "鬼@@": 9472, "会议@@": 9473, "口头": 9474, "甩@@": 9475, "张晓@@": 9476, "驾驶室": 9477, "南路": 9478, "收拾": 9479, "外部": 9480, "吕某": 9481, "招商": 9482, "49@@": 9483, "区政府": 9484, "闭": 9485, "溢@@": 9486, "模糊": 9487, "前去": 9488, "车速": 9489, "团结": 9490, "射击": 9491, "外资": 9492, "民政@@": 9493, "将军": 9494, "ce@@": 9495, "监督管理": 9496, "瑞士": 9497, "递交": 9498, "福利院": 9499, "抢夺": 9500, "阔": 9501, "券": 9502, "店员": 9503, "北京大学": 9504, "管理条例": 9505, "飞行@@": 9506, "鼻子": 9507, "数学": 9508, "殷@@": 9509, "保护区": 9510, "淀@@": 9511, "在建": 9512, "合法权益": 9513, "男朋友": 9514, "机械@@": 9515, "信息化": 9516, "符合@@": 9517, "数次": 9518, "机遇": 9519, "号牌": 9520, "打进": 9521, "门窗": 9522, "二孩": 9523, "势力": 9524, "以便": 9525, "这句": 9526, "毫无": 9527, "夺得": 9528, "造型": 9529, "西北": 9530, "两融": 9531, "渐@@": 9532, "干警": 9533, "裕": 9534, "俱@@": 9535, "缺陷": 9536, "登记@@": 9537, "将球": 9538, "铜": 9539, "太大": 9540, "中国联通": 9541, "调节": 9542, "行走": 9543, "小禁区": 9544, "舟": 9545, "大师": 9546, "华尔@@": 9547, "历时": 9548, "郎@@": 9549, "绳子": 9550, "站点": 9551, "收养": 9552, "一体化": 9553, "本土": 9554, "汪峰": 9555, "疫@@": 9556, "斑": 9557, "气象": 9558, "生物@@": 9559, "厂家": 9560, "群岛": 9561, "差点": 9562, "新能源": 9563, "投放": 9564, "语文": 9565, "平方公里": 9566, "轻生": 9567, "俗@@": 9568, "成人": 9569, "殊@@": 9570, "永": 9571, "一夜": 9572, "失望": 9573, "性别": 9574, "布鲁@@": 9575, "华盛顿": 9576, "若干": 9577, "罗马": 9578, "玻璃@@": 9579, "留学": 9580, "建筑面积": 9581, "南宁市": 9582, "这批": 9583, "殴": 9584, "城际": 9585, "雷雨大风": 9586, "融券": 9587, "仲裁": 9588, "不合理": 9589, "考点": 9590, "坑@@": 9591, "宽带": 9592, "动机": 9593, "延误": 9594, "首相": 9595, "全民": 9596, "忧@@": 9597, "蹲": 9598, "晒@@": 9599, "替代": 9600, "熙": 9601, "供应商": 9602, "品质": 9603, "保持@@": 9604, "一步@@": 9605, "赎@@": 9606, "明确规定": 9607, "公职人员": 9608, "看过": 9609, "詹@@": 9610, "之路": 9611, "取保候审": 9612, "少林": 9613, "胳膊": 9614, "情节严重": 9615, "常务": 9616, "沉默": 9617, "音乐@@": 9618, "脏@@": 9619, "整容": 9620, "槽": 9621, "残疾人": 9622, "肢@@": 9623, "筹": 9624, "下周": 9625, "亚太": 9626, "接入": 9627, "该村": 9628, "航天": 9629, "认罪": 9630, "焦": 9631, "辨@@": 9632, "穿过": 9633, "技能": 9634, "精力": 9635, "国资": 9636, "复苏": 9637, "当成": 9638, "谁知": 9639, "全线": 9640, "饶": 9641, "途@@": 9642, "做饭": 9643, "抗": 9644, "山东鲁能": 9645, "有效@@": 9646, "王志@@": 9647, "私自": 9648, "凭@@": 9649, "年末": 9650, "认真@@": 9651, "不该": 9652, "出战": 9653, "区县": 9654, "娄@@": 9655, "老王": 9656, "停留": 9657, "巨头": 9658, "邹勇": 9659, "视线": 9660, "进驻": 9661, "中原": 9662, "来不及": 9663, "整整": 9664, "不久前": 9665, "轮渡": 9666, "直言": 9667, "外国人": 9668, "身份@@": 9669, "副所长": 9670, "开往": 9671, "极为": 9672, "杨先生": 9673, "蹭": 9674, "盼": 9675, "呼救": 9676, "重量": 9677, "发力": 9678, "机上": 9679, "卖家": 9680, "和平@@": 9681, "战役": 9682, "监管部门": 9683, "追回": 9684, "年限": 9685, "林森": 9686, "化学": 9687, "以为@@": 9688, "热闹": 9689, "副处长": 9690, "半左右": 9691, "两张": 9692, "正值": 9693, "翠@@": 9694, "出土": 9695, "表述": 9696, "房间内": 9697, "会计": 9698, "三口": 9699, "高额": 9700, "避": 9701, "治安@@": 9702, "违规行为": 9703, "街上": 9704, "枪手": 9705, "绵@@": 9706, "人行道": 9707, "灵活": 9708, "中央军委": 9709, "肖某": 9710, "徐纯合": 9711, "37@@": 9712, "明知": 9713, "暖@@": 9714, "鸭@@": 9715, "缺失": 9716, "支援": 9717, "儿童医院": 9718, "彪": 9719, "绳@@": 9720, "油田": 9721, "财报": 9722, "北区": 9723, "调查@@": 9724, "策@@": 9725, "冈@@": 9726, "国民": 9727, "他会": 9728, "帆": 9729, "展现": 9730, "合约": 9731, "宏观@@": 9732, "大使": 9733, "降价": 9734, "芜@@": 9735, "瓷": 9736, "牛奶": 9737, "大城市": 9738, "侵占": 9739, "夜里": 9740, "辞去": 9741, "涉案人员": 9742, "贯彻": 9743, "葛": 9744, "驱动": 9745, "台湾@@": 9746, "远离": 9747, "肇事@@": 9748, "挪@@": 9749, "高中@@": 9750, "伍@@": 9751, "召@@": 9752, "时常": 9753, "很小": 9754, "魂": 9755, "涌": 9756, "建军": 9757, "母子": 9758, "挪用公款": 9759, "打着": 9760, "目睹": 9761, "纱@@": 9762, "谢某": 9763, "愿望": 9764, "刊": 9765, "主任@@": 9766, "东风": 9767, "国人": 9768, "这方面": 9769, "帽子": 9770, "浓雾": 9771, "华夏": 9772, "尸@@": 9773, "饮食": 9774, "耳光": 9775, "宝马车": 9776, "监察厅": 9777, "金星": 9778, "诚信": 9779, "按摩": 9780, "面上": 9781, "忘记": 9782, "贬值": 9783, "桃": 9784, "家具": 9785, "刑警": 9786, "飞往": 9787, "区委书记": 9788, "养老院": 9789, "监护室": 9790, "发育": 9791, "部地区": 9792, "移植": 9793, "追赶": 9794, "格外": 9795, "滴": 9796, "兹@@": 9797, "战绩": 9798, "党委委员": 9799, "大国": 9800, "入网": 9801, "个人信息": 9802, "阵雨": 9803, "虐待": 9804, "支配": 9805, "缠@@": 9806, "平顶@@": 9807, "浴": 9808, "贪官": 9809, "墨西哥": 9810, "大熊猫": 9811, "windows@@": 9812, "抽": 9813, "调动": 9814, "前述": 9815, "光明": 9816, "摄影@@": 9817, "民主@@": 9818, "华西": 9819, "捆绑": 9820, "反思": 9821, "张贴": 9822, "姆@@": 9823, "阳区": 9824, "承包@@": 9825, "曦": 9826, "辨认": 9827, "同伴": 9828, "融合": 9829, "出狱": 9830, "po@@": 9831, "普遍@@": 9832, "开除公职": 9833, "坟": 9834, "寺@@": 9835, "重要@@": 9836, "尺": 9837, "停产": 9838, "防控": 9839, "陕@@": 9840, "北路": 9841, "医药费": 9842, "劲射": 9843, "柜@@": 9844, "图案": 9845, "厄@@": 9846, "邀@@": 9847, "阴": 9848, "泥石流": 9849, "一分": 9850, "当地人": 9851, "只以": 9852, "噩@@": 9853, "挪用": 9854, "从严": 9855, "市政": 9856, "安监局": 9857, "阿拉@@": 9858, "被查": 9859, "兽": 9860, "流失": 9861, "冷静": 9862, "职业@@": 9863, "查实": 9864, "螺@@": 9865, "衔": 9866, "期望": 9867, "透过": 9868, "稍": 9869, "输入": 9870, "呼格": 9871, "杭州市": 9872, "推射": 9873, "许某": 9874, "万辆": 9875, "不知@@": 9876, "咋": 9877, "谭某": 9878, "消防人员": 9879, "江区": 9880, "场外": 9881, "扣除": 9882, "有待": 9883, "凌空": 9884, "pl@@": 9885, "红军": 9886, "平均工资": 9887, "汇款": 9888, "没见": 9889, "任何人": 9890, "自发": 9891, "边上": 9892, "感冒": 9893, "扶梯": 9894, "而后": 9895, "墓葬": 9896, "医学@@": 9897, "滞@@": 9898, "古代": 9899, "财政局": 9900, "驳回": 9901, "返": 9902, "日本政府": 9903, "长假": 9904, "彼此": 9905, "恼": 9906, "急诊科": 9907, "扰": 9908, "据统计": 9909, "逃离现场": 9910, "弧@@": 9911, "活力": 9912, "恋@@": 9913, "出轨": 9914, "3.5": 9915, "爱人": 9916, "泄@@": 9917, "丰县": 9918, "察": 9919, "夹": 9920, "计算机": 9921, "哈尔滨市": 9922, "爷": 9923, "棵": 9924, "四名": 9925, "主流": 9926, "河区": 9927, "那名": 9928, "塑@@": 9929, "钓鱼岛": 9930, "坪@@": 9931, "钩": 9932, "理工@@": 9933, "出差": 9934, "应有": 9935, "享有": 9936, "重点@@": 9937, "距@@": 9938, "阻": 9939, "背部": 9940, "生长": 9941, "一百@@": 9942, "为名": 9943, "几家": 9944, "微博中": 9945, "桌子": 9946, "行车": 9947, "查阅": 9948, "复旦大学": 9949, "山体": 9950, "科级": 9951, "踪影": 9952, "整顿": 9953, "回顾": 9954, "中心医院": 9955, "混合": 9956, "西侧": 9957, "阻碍": 9958, "轻易": 9959, "凸@@": 9960, "紧紧": 9961, "天然": 9962, "柳": 9963, "供应@@": 9964, "大连市": 9965, "农场": 9966, "捂@@": 9967, "脾气": 9968, "粮食": 9969, "味@@": 9970, "悠": 9971, "困扰": 9972, "夺": 9973, "殿": 9974, "表决": 9975, "少将": 9976, ".@@": 9977, "早期": 9978, "鉴": 9979, "禽": 9980, "工商局": 9981, "洒": 9982, "设想": 9983, "相机": 9984, "贷@@": 9985, "经典": 9986, "挖掘机": 9987, "拓@@": 9988, "终结": 9989, "中国人民银行": 9990, "冷空气": 9991, "丰田": 9992, "呼和浩特": 9993, "冻结": 9994, "全县": 9995, "ic": 9996, "持续@@": 9997, "他称": 9998, "唐某": 9999, "104": 10000, "硬币": 10001, "装有": 10002, "值班@@": 10003, "两度": 10004, "高压": 10005, "同一个": 10006, "欠款": 10007, "腿部": 10008, "专利": 10009, "排污": 10010, "麻将": 10011, "瑞海": 10012, "栏目": 10013, "1.6": 10014, "废弃": 10015, "务工": 10016, "雕": 10017, "禽@@": 10018, "苏某": 10019, "离家出走": 10020, "壮": 10021, "抄@@": 10022, "巴基斯坦": 10023, "芝@@": 10024, "感兴趣": 10025, "激励": 10026, "掐@@": 10027, "耶@@": 10028, "前任": 10029, "监察局": 10030, "森林狼": 10031, "鞋子": 10032, "桥梁": 10033, "早日": 10034, "服用": 10035, "爹": 10036, "大病": 10037, "腿@@": 10038, "摇": 10039, "考试院": 10040, "放到": 10041, "深化改革": 10042, "阳阳": 10043, "骏": 10044, "悬赏": 10045, "趴在": 10046, "院内": 10047, "制毒": 10048, "慰问": 10049, "电池": 10050, "外线": 10051, "发病": 10052, "贫": 10053, "大腿": 10054, "政法@@": 10055, "捐": 10056, "平板": 10057, "粤@@": 10058, "莆@@": 10059, "中全会": 10060, "回合": 10061, "问及": 10062, "卸@@": 10063, "恤": 10064, "1.3": 10065, "船上": 10066, "贸易@@": 10067, "友好": 10068, "务局": 10069, "代理@@": 10070, "ir@@": 10071, "公墓": 10072, "垂@@": 10073, "告别": 10074, "看似": 10075, "内有": 10076, "破案": 10077, "余元": 10078, "占有": 10079, "昆": 10080, "差别": 10081, "榜@@": 10082, "跟进": 10083, "燃气": 10084, "胶": 10085, "追缴": 10086, "杀人案": 10087, "刘志@@": 10088, "救命": 10089, "怨@@": 10090, "不易": 10091, "三楼": 10092, "史上": 10093, "零售@@": 10094, "实地": 10095, "联络": 10096, "耳朵": 10097, "相反": 10098, "积分": 10099, "焚烧": 10100, "下手": 10101, "会计@@": 10102, "脉@@": 10103, "墩": 10104, "分离": 10105, "劫持": 10106, "贫困@@": 10107, "秦皇@@": 10108, "证言": 10109, "城镇化": 10110, "袁某": 10111, "山洪": 10112, "一具": 10113, "犹豫": 10114, "逃避": 10115, "快速@@": 10116, "旨在": 10117, "既@@": 10118, "w": 10119, "高三": 10120, "女神": 10121, "协定": 10122, "露面": 10123, "黄晓明": 10124, "水上": 10125, "短暂": 10126, "央广网": 10127, "上映": 10128, "泄": 10129, "带上": 10130, "兹": 10131, "股票@@": 10132, "晃@@": 10133, "竞技": 10134, "翁": 10135, "晃": 10136, "名人": 10137, "关爱": 10138, "挽回": 10139, "全面@@": 10140, "王志强": 10141, "纪检组": 10142, "一一": 10143, "科研@@": 10144, "追尾": 10145, "停下": 10146, "否": 10147, "亲密": 10148, "蚌@@": 10149, "客厅": 10150, "仇@@": 10151, "1.4": 10152, "颇@@": 10153, "近年": 10154, "绥@@": 10155, "四风": 10156, "汝@@": 10157, "暴力@@": 10158, "家暴": 10159, "负债": 10160, "足协": 10161, "背着": 10162, "大力@@": 10163, "稍稍": 10164, "is": 10165, "亿港元": 10166, "向前": 10167, "ap@@": 10168, "萍@@": 10169, "贯@@": 10170, "辩@@": 10171, "通话": 10172, "时尚": 10173, "流出": 10174, "过关": 10175, "绘@@": 10176, "消化": 10177, "高尔夫@@": 10178, "中国移动": 10179, "挣": 10180, "输液": 10181, "径@@": 10182, "pa@@": 10183, "德勒": 10184, "恐龙": 10185, "辩护律师": 10186, "判定": 10187, "年仅": 10188, "多分钟": 10189, "暨": 10190, "踏": 10191, "共青团": 10192, "训@@": 10193, "尊": 10194, "模型": 10195, "概率": 10196, "青年报": 10197, "再次@@": 10198, "德里": 10199, "考上": 10200, "斯塔": 10201, "长约": 10202, "厅级": 10203, "人口@@": 10204, "听证会": 10205, "党支部": 10206, "幕@@": 10207, "入狱": 10208, "短期内": 10209, "食品药品": 10210, "窒息": 10211, "报讯": 10212, "嘴里": 10213, "敲": 10214, "代表团": 10215, "自动@@": 10216, "..@@": 10217, "亲戚@@": 10218, "题为": 10219, "祝": 10220, "手法": 10221, "完工": 10222, "处处长": 10223, "见证": 10224, "忍不住": 10225, "藤@@": 10226, "经济社会": 10227, "医学院": 10228, "车牌号": 10229, "昕": 10230, "多辆": 10231, "ig@@": 10232, "位居": 10233, "遇害": 10234, "欺骗": 10235, "急性": 10236, "击毙": 10237, "阮@@": 10238, "侦察": 10239, "流浪": 10240, "马航": 10241, "樊@@": 10242, "省高院": 10243, "严惩": 10244, "果然": 10245, "势头": 10246, "交谈": 10247, "随身携带": 10248, "米左右": 10249, "方正": 10250, "玉米": 10251, "法晚": 10252, "浓烟": 10253, "十大": 10254, "暑假": 10255, "心疼": 10256, "矿业": 10257, "屯@@": 10258, "学术": 10259, "撑@@": 10260, "口罩": 10261, "笼": 10262, "遂@@": 10263, "言语": 10264, "撬@@": 10265, "设有": 10266, "核心@@": 10267, "一早": 10268, "求救": 10269, "驾照": 10270, "预报": 10271, "洛杉矶": 10272, "刘翔": 10273, "莎@@": 10274, "进度": 10275, "妆": 10276, "戴着": 10277, "散步": 10278, "绿灯": 10279, "自制": 10280, "多为": 10281, "熟人": 10282, "室@@": 10283, "享@@": 10284, "呼和浩特市": 10285, "受审": 10286, "南站": 10287, "对应": 10288, "堤": 10289, "叉": 10290, "转会费": 10291, "南车": 10292, "学位": 10293, "违约": 10294, "接送": 10295, "设定": 10296, "抽射": 10297, "老李": 10298, "潍坊": 10299, "中铁": 10300, "情妇": 10301, "宿迁": 10302, "决议": 10303, "大喊": 10304, "持枪": 10305, "目的地": 10306, "戒指": 10307, "涉毒": 10308, "没人": 10309, "埠": 10310, "衫": 10311, "服役": 10312, "人次": 10313, "学生@@": 10314, "水果刀": 10315, "晓峰": 10316, "编造": 10317, "底下": 10318, "颁发": 10319, "颇为": 10320, "邀": 10321, "国庆": 10322, "自信": 10323, "此处": 10324, "汗@@": 10325, "树立": 10326, "第一名": 10327, "编号": 10328, "循环": 10329, "葡萄@@": 10330, "父子": 10331, "寄": 10332, "转基因": 10333, "英文": 10334, "竣工": 10335, "分散": 10336, "己": 10337, "族自治@@": 10338, "新鲜": 10339, "穴": 10340, "港股": 10341, "赢@@": 10342, "残忍": 10343, "流行": 10344, "地段": 10345, "无需": 10346, "座谈会": 10347, "不幸@@": 10348, "防线": 10349, "德里@@": 10350, "标注": 10351, "航线": 10352, "台市": 10353, "老年": 10354, "示范": 10355, "览": 10356, "骨头": 10357, "%": 10358, "消": 10359, "第一位": 10360, "叮@@": 10361, "吸": 10362, "副厅长": 10363, "发生冲突": 10364, "立马": 10365, "两三@@": 10366, "入户": 10367, "求婚": 10368, "蟒蛇": 10369, "随机": 10370, "隐藏": 10371, "踹": 10372, "互通": 10373, "1994": 10374, "全都": 10375, "口处": 10376, "今晚": 10377, "年报": 10378, "管理层": 10379, "万一": 10380, "103": 10381, "惯@@": 10382, "查封": 10383, "羁押": 10384, "监测@@": 10385, "培育": 10386, "唱歌": 10387, "回避": 10388, "批发@@": 10389, "劳动者": 10390, "录制": 10391, "金钱": 10392, "盯": 10393, "前不久": 10394, "扑救": 10395, "肌肉": 10396, "不动": 10397, "过高": 10398, "宵": 10399, "台上": 10400, "招商@@": 10401, "截": 10402, "黑客": 10403, "中小": 10404, "横梁": 10405, "舜天": 10406, "中市": 10407, "还称": 10408, "联系方式": 10409, "指认": 10410, "裙": 10411, "为首": 10412, "留给": 10413, "廉政": 10414, "起身": 10415, "新闻记者": 10416, "贡@@": 10417, "好人": 10418, "肇@@": 10419, "24.@@": 10420, "获刑": 10421, "绑@@": 10422, "剖@@": 10423, "抹": 10424, "不堪@@": 10425, "路透社": 10426, "性侵": 10427, "电厂": 10428, "使馆": 10429, "督查": 10430, "开口": 10431, "查证": 10432, "步行者": 10433, "牟@@": 10434, "舰艇": 10435, "茂": 10436, "尼克斯": 10437, "爸妈": 10438, "日益": 10439, "面膜": 10440, "vs": 10441, "不佳": 10442, "建设项目": 10443, "不多": 10444, "制约": 10445, "中投": 10446, "半场": 10447, "点燃": 10448, "干事": 10449, "140": 10450, "搭档": 10451, "持平": 10452, "伙伴": 10453, "环评": 10454, "同村": 10455, "中心@@": 10456, "时隔": 10457, "不断@@": 10458, "僧@@": 10459, "保健@@": 10460, "狂": 10461, "麟": 10462, "敲诈": 10463, "抵": 10464, "健身": 10465, "羞@@": 10466, "传奇": 10467, "镇江": 10468, "撰@@": 10469, "is@@": 10470, "一遍": 10471, "篮球": 10472, "提速": 10473, "重返": 10474, "醒来": 10475, "可怜": 10476, "弟@@": 10477, "定向": 10478, "判处死刑": 10479, "两周": 10480, "淮": 10481, "鹅": 10482, "浅@@": 10483, "烦@@": 10484, "在校": 10485, "债权人": 10486, "店内": 10487, "束@@": 10488, "气氛": 10489, "万名": 10490, "片区": 10491, "创意": 10492, "工程建设": 10493, "样品": 10494, "主演": 10495, "开玩笑": 10496, "丝毫": 10497, "婉@@": 10498, "因而": 10499, "22.@@": 10500, "法定代表": 10501, "站长": 10502, "偶@@": 10503, "购房者": 10504, "合肥市": 10505, "假冒": 10506, "上次": 10507, "不远处": 10508, "托管": 10509, "环卫工": 10510, "失主": 10511, "证金": 10512, "省长": 10513, "近几年": 10514, "高价": 10515, "萱": 10516, "危险@@": 10517, "回老家": 10518, "聚焦": 10519, "荣誉": 10520, "115": 10521, "带头": 10522, "买来": 10523, "小时候": 10524, "罐@@": 10525, "挖掘": 10526, "奇葩": 10527, "两起": 10528, "离世": 10529, "咽": 10530, "发生@@": 10531, "淫秽": 10532, "烟台": 10533, "八一": 10534, "跳舞": 10535, "发了": 10536, "新政": 10537, "科室": 10538, "老鼠": 10539, "房产@@": 10540, "唐山": 10541, "畜@@": 10542, "市场份额": 10543, "大致": 10544, "猛龙": 10545, "铭@@": 10546, "吞": 10547, "门店": 10548, "积蓄": 10549, "慕@@": 10550, "利益@@": 10551, "耒@@": 10552, "医务人员": 10553, "侄@@": 10554, "神经@@": 10555, "楚天": 10556, "寻衅滋事": 10557, "绿地": 10558, "稻@@": 10559, "粪@@": 10560, "邦@@": 10561, "盘中": 10562, "口岸": 10563, "甘": 10564, "牛肉": 10565, "同性恋": 10566, "饮酒": 10567, "南国": 10568, "之类": 10569, "万人次": 10570, "无可@@": 10571, "三级": 10572, "弥@@": 10573, "专职": 10574, "半决赛": 10575, "抓获归案": 10576, "步行": 10577, "用水": 10578, "手枪": 10579, "绿化": 10580, "掘金": 10581, "不远": 10582, "家园": 10583, "携程": 10584, "人财物": 10585, "赣@@": 10586, "一职": 10587, "面子": 10588, "风波": 10589, "悔": 10590, "抗日战争": 10591, "行至": 10592, "歪@@": 10593, "豹": 10594, "调查取证": 10595, "周边@@": 10596, "狱": 10597, "阁": 10598, "环境保护": 10599, "动员": 10600, "打通": 10601, "丛@@": 10602, "法制": 10603, "呵@@": 10604, "尼斯": 10605, "停工": 10606, "志强": 10607, "反正": 10608, "颈": 10609, "样本": 10610, "一户": 10611, "多公里": 10612, "警戒": 10613, "恐惧": 10614, "接力": 10615, "山村": 10616, "水下": 10617, "倩": 10618, "附": 10619, "达成协议": 10620, "叹": 10621, "结识": 10622, "告上": 10623, "赔偿金": 10624, "论证": 10625, "斯基": 10626, "供电": 10627, "疾@@": 10628, "农村@@": 10629, "恐": 10630, "淤@@": 10631, "一个多": 10632, "鼓": 10633, "吉勒": 10634, "刑警@@": 10635, "万个": 10636, "鑫@@": 10637, "搭乘": 10638, "羊城晚报": 10639, "携@@": 10640, "通报@@": 10641, "畅@@": 10642, "联手": 10643, "炫@@": 10644, "起诉书": 10645, "看不到": 10646, "入室": 10647, "赴@@": 10648, "鱼塘": 10649, "违背": 10650, "肚@@": 10651, "党和@@": 10652, "环保部": 10653, "喉@@": 10654, "参保": 10655, "天猫": 10656, "增值": 10657, "咖啡": 10658, "一般@@": 10659, "感叹": 10660, "堰": 10661, "巢": 10662, "菌@@": 10663, "闸": 10664, "婆@@": 10665, "扮演": 10666, "当下": 10667, "荷": 10668, "销毁": 10669, "清洁": 10670, "臭": 10671, "屿": 10672, "召": 10673, "七年": 10674, "大气污染": 10675, "峰会": 10676, "限期": 10677, "营造": 10678, "情报@@": 10679, "氛围": 10680, "影视@@": 10681, "窜": 10682, "加固": 10683, "陵园": 10684, "商贸": 10685, "明珠": 10686, "周永康": 10687, "估": 10688, "实际@@": 10689, "教育厅": 10690, "专访": 10691, "新人": 10692, "老大": 10693, "加重": 10694, "中信@@": 10695, "季后赛": 10696, "理科": 10697, "颅@@": 10698, "申请@@": 10699, "过半": 10700, "牌子": 10701, "打人者": 10702, "晖": 10703, "政府@@": 10704, "财年": 10705, "映": 10706, "好心": 10707, "搭载": 10708, "生子": 10709, "召集": 10710, "陆某": 10711, "惑": 10712, "两场": 10713, "一节": 10714, "参赛": 10715, "城管局": 10716, "环保部门": 10717, "粗": 10718, "两点": 10719, "刊登": 10720, "厦": 10721, "沃尔@@": 10722, "往常": 10723, "108": 10724, "裁员": 10725, "拐卖@@": 10726, "99@@": 10727, "女足": 10728, "科研": 10729, "近距离": 10730, "补偿款": 10731, "中车": 10732, "可夫": 10733, "勿": 10734, "防雾": 10735, "复": 10736, "网传": 10737, "氏@@": 10738, "用手": 10739, "中期": 10740, "保定市": 10741, "洗澡": 10742, "医科大学": 10743, "大事": 10744, "肃@@": 10745, "基因": 10746, "凑@@": 10747, "制裁": 10748, "标的": 10749, "土豪": 10750, "诱惑": 10751, "交通管制": 10752, "国家机关": 10753, "人中": 10754, "急诊": 10755, "私募": 10756, "成品油": 10757, "登场": 10758, "甜蜜": 10759, "患上": 10760, "猫@@": 10761, "被子": 10762, "小伙伴": 10763, "丈": 10764, "冈": 10765, "贫困": 10766, "公证@@": 10767, "贪": 10768, "60@@": 10769, "塌": 10770, "长得": 10771, "ang@@": 10772, "不利于": 10773, "驾驶@@": 10774, "运输@@": 10775, "惩罚": 10776, "法医": 10777, "主教练": 10778, "比如说": 10779, "肾": 10780, "出入境": 10781, "福州市": 10782, "访谈": 10783, "渝@@": 10784, "防滑": 10785, "公共服务": 10786, "中标": 10787, "援@@": 10788, "跑道": 10789, "阅@@": 10790, "旱": 10791, "楚": 10792, "标准@@": 10793, "符合条件": 10794, "一副": 10795, "担": 10796, "弥补": 10797, "恩爱": 10798, "道理": 10799, "有毒": 10800, "德斯": 10801, "增值税": 10802, "尔克": 10803, "爱好": 10804, "营救": 10805, "不安": 10806, "没多久": 10807, "注意安全": 10808, "歇@@": 10809, "各位": 10810, "严肃处理": 10811, "德赫亚": 10812, "营养@@": 10813, "0.5": 10814, "十多年": 10815, "工作日": 10816, "蛮": 10817, "目前为止": 10818, "合作@@": 10819, "文书": 10820, "箱@@": 10821, "疾控中心": 10822, "并用": 10823, "批捕": 10824, "豪宅": 10825, "湛江": 10826, "临沂": 10827, "行贿@@": 10828, "重庆晚报": 10829, "澜": 10830, "耕地": 10831, "大暴雨": 10832, "很长": 10833, "台北": 10834, "盒@@": 10835, "而出": 10836, "三节": 10837, "智库": 10838, "缺口": 10839, "调价": 10840, "户口@@": 10841, "阻拦": 10842, "两级": 10843, "碳": 10844, "es": 10845, "洲杯": 10846, "传承": 10847, "篮网": 10848, "监局": 10849, "措": 10850, "亮点": 10851, "延迟": 10852, "卷入": 10853, "项目@@": 10854, "宠物": 10855, "出身": 10856, "炭@@": 10857, "彤": 10858, "相亲": 10859, "注销": 10860, "式@@": 10861, "售卖": 10862, "司法鉴定": 10863, "爷爷奶奶": 10864, "运河": 10865, "卢某": 10866, "代理律师": 10867, "鼎": 10868, "悬挂": 10869, "丧失": 10870, "嘉宾": 10871, "大哭": 10872, "帐@@": 10873, "住宅@@": 10874, "电量": 10875, "中小板": 10876, "小学@@": 10877, "一趟": 10878, "确有": 10879, "民族@@": 10880, "从不": 10881, "国内外": 10882, "化妆品": 10883, "国务院@@": 10884, "遗书": 10885, "mo@@": 10886, "宜昌": 10887, "动车组": 10888, "王子": 10889, "饲养": 10890, "交付": 10891, "郴@@": 10892, "赔偿@@": 10893, "泼@@": 10894, "生素": 10895, "拓": 10896, "港澳": 10897, "确": 10898, "榜单": 10899, "赞同": 10900, "香烟": 10901, "勇气": 10902, "报酬": 10903, "协作": 10904, "甸": 10905, "竹": 10906, "健康@@": 10907, "ct": 10908, "睡眠": 10909, "访华": 10910, "安倍晋三": 10911, "一瓶": 10912, "华北": 10913, "想想": 10914, "atm": 10915, "航天@@": 10916, "篮下": 10917, "联网": 10918, "份@@": 10919, "大奖": 10920, "贝尔": 10921, "魔": 10922, "随之": 10923, "凑": 10924, "监会": 10925, "干脆": 10926, "来回": 10927, "匿": 10928, "看不@@": 10929, "物业公司": 10930, "106": 10931, "购置": 10932, "穿越": 10933, "肩": 10934, "一米": 10935, "恐@@": 10936, "天数": 10937, "裸": 10938, "整形": 10939, "滞留": 10940, "67@@": 10941, "地处": 10942, "蜡@@": 10943, "颠@@": 10944, "腊@@": 10945, "都市": 10946, "东方@@": 10947, "岳父": 10948, "业务员": 10949, "命中率": 10950, "划分": 10951, "芒@@": 10952, "住院治疗": 10953, "大气": 10954, "流浪@@": 10955, "通用": 10956, "兑现": 10957, "火爆": 10958, "河水": 10959, "文艺": 10960, "领到": 10961, "东侧": 10962, "生猪": 10963, "致力于": 10964, "反垄断": 10965, "彩礼": 10966, "大众网": 10967, "贯彻落实": 10968, "骆@@": 10969, "交通局": 10970, "艺人": 10971, "展览": 10972, "联系@@": 10973, "聘请": 10974, "两位数": 10975, "口径": 10976, "武装@@": 10977, "交叉口": 10978, "服装@@": 10979, "逃脱": 10980, "通缉令": 10981, "供给": 10982, "气体": 10983, "赣州": 10984, "漆": 10985, "停车位": 10986, "最少": 10987, "乳": 10988, "轨@@": 10989, "清查": 10990, "掀起": 10991, "合作伙伴": 10992, "26.@@": 10993, "潜力": 10994, "源于": 10995, "空白": 10996, "踪": 10997, "变为": 10998, "题材": 10999, "被害": 11000, "两项": 11001, "历经": 11002, "逻辑": 11003, "岛礁": 11004, "进出口": 11005, "红旗": 11006, "第八": 11007, "外国@@": 11008, "覃@@": 11009, "山路": 11010, "合同@@": 11011, "回头": 11012, "着力": 11013, "丑@@": 11014, "襄阳": 11015, "案发前": 11016, "上任": 11017, "丛": 11018, "肇事者": 11019, "基数": 11020, "省委书记": 11021, "27.@@": 11022, "桌上": 11023, "ho@@": 11024, "出租房": 11025, "最高人民检察院": 11026, "河边": 11027, "逐": 11028, "封堵": 11029, "仰@@": 11030, "枢@@": 11031, "硕": 11032, "粤": 11033, "独特": 11034, "抑郁症": 11035, "战友": 11036, "乡市": 11037, "打印": 11038, "指纹": 11039, "复查": 11040, "婷婷": 11041, "王菲": 11042, "价格上涨": 11043, "最新消息": 11044, "计生委": 11045, "塑料@@": 11046, "冲出": 11047, "泣": 11048, "参照": 11049, "祸": 11050, "赵薇": 11051, "知名@@": 11052, "扬子晚报": 11053, "称其": 11054, "人来": 11055, "温暖": 11056, "现代化": 11057, "红十字会": 11058, "借口": 11059, "占领": 11060, "高效": 11061, "棺@@": 11062, "购票": 11063, "中小@@": 11064, "伟大": 11065, "晚饭": 11066, "‍": 11067, "沸@@": 11068, "视野": 11069, "训练@@": 11070, "获知": 11071, "1800": 11072, "一届": 11073, "做过": 11074, "抛": 11075, "连得": 11076, "心脏病": 11077, "连忙": 11078, "稿件": 11079, "网点": 11080, "平市": 11081, "形容": 11082, "浙江@@": 11083, "浙@@": 11084, "晕倒": 11085, "跑车": 11086, "呼市": 11087, "迎接": 11088, "国土资源": 11089, "100.0@@": 11090, "口子": 11091, "外来": 11092, "前进": 11093, "损毁": 11094, "噪@@": 11095, "南充": 11096, "护理": 11097, "这事": 11098, "彭某": 11099, "适时": 11100, "张伟": 11101, "收费@@": 11102, "辍学": 11103, "在一起": 11104, "琐事": 11105, "万英镑": 11106, "周六": 11107, "咱们": 11108, "胖@@": 11109, "估@@": 11110, "第一批": 11111, "起因": 11112, "难受": 11113, "危房": 11114, "违": 11115, "从业": 11116, "ne@@": 11117, "统战部": 11118, "忽视": 11119, "气管": 11120, "宣告": 11121, "88@@": 11122, "学期": 11123, "镇长": 11124, "教育部门": 11125, "出生@@": 11126, "进站": 11127, "现场图": 11128, "回收": 11129, "佣": 11130, "进京": 11131, "猴@@": 11132, "坟@@": 11133, "电话@@": 11134, "烂@@": 11135, "分工": 11136, "1600": 11137, "发行@@": 11138, "看待": 11139, "天价": 11140, "已于": 11141, "严峻": 11142, "无所@@": 11143, "霍华德": 11144, "首尔": 11145, "山镇": 11146, "复制": 11147, "议论": 11148, "犯罪团伙": 11149, "时间@@": 11150, "妙@@": 11151, "叠": 11152, "鼠@@": 11153, "朋@@": 11154, "信访局": 11155, "一体": 11156, "煌": 11157, "小狗": 11158, "汉中": 11159, "钧": 11160, "and@@": 11161, "萝@@": 11162, "课题": 11163, "新房": 11164, "步伐": 11165, "奇迹": 11166, "宏观": 11167, "工艺": 11168, "日起": 11169, "上场": 11170, "秒钟": 11171, "减肥": 11172, "吸食": 11173, "一来": 11174, "维稳": 11175, "开来": 11176, "旋": 11177, "操纵": 11178, "儿童@@": 11179, "枣@@": 11180, "茂名": 11181, "大儿子": 11182, "青岛市": 11183, "消防支队": 11184, "洛阳市": 11185, "黑熊": 11186, "张楠": 11187, "地方@@": 11188, "海波": 11189, "晋江": 11190, "明明": 11191, "上限": 11192, "劫匪": 11193, "聪": 11194, "祈@@": 11195, "成品": 11196, "党政@@": 11197, "逛@@": 11198, "小平": 11199, "晋级": 11200, "起步": 11201, "叙@@": 11202, "纹@@": 11203, "外人": 11204, "睡着": 11205, "矫@@": 11206, "1992": 11207, "事务所律师": 11208, "不着": 11209, "白领": 11210, "溜@@": 11211, "疑犯": 11212, "第一天": 11213, "一再": 11214, "联动": 11215, "无线@@": 11216, "莎": 11217, "琳@@": 11218, "收益率": 11219, "低头": 11220, "哄@@": 11221, "强劲": 11222, "些时候": 11223, "一圈": 11224, "泉水": 11225, "幸好": 11226, "化学@@": 11227, "年任": 11228, "改制": 11229, "出租汽车": 11230, "疫": 11231, "大河": 11232, "毯": 11233, "魅@@": 11234, "吃惊": 11235, "鞭@@": 11236, "1.7": 11237, "西南@@": 11238, "侦": 11239, "充足": 11240, "沙发": 11241, "纲": 11242, "密切接触": 11243, "烫@@": 11244, "几句": 11245, "作弊": 11246, "维尔": 11247, "吉林市": 11248, "傻@@": 11249, "僵局": 11250, "疆": 11251, "脸部": 11252, "公关": 11253, "投资人": 11254, "底部": 11255, "张馨予": 11256, "47@@": 11257, "炸": 11258, "礼品": 11259, "相对湿度": 11260, "煮": 11261, "闻到": 11262, "故意伤害": 11263, "篇@@": 11264, "内幕": 11265, "芬@@": 11266, "亲生": 11267, "税率": 11268, "ing@@": 11269, "港币": 11270, "口市": 11271, "狗肉": 11272, "辖": 11273, "娇@@": 11274, "稍微": 11275, "促销": 11276, "理会": 11277, "戳": 11278, "宰": 11279, "蛇@@": 11280, "确立": 11281, "法学": 11282, "战斗@@": 11283, "放置": 11284, "提出@@": 11285, "保姆": 11286, "时称": 11287, "添": 11288, "灰熊": 11289, "去过": 11290, "卜": 11291, "批示": 11292, "舌@@": 11293, "腐败@@": 11294, "黄蜂": 11295, "充分发挥": 11296, "售票": 11297, "烟草": 11298, "小花": 11299, "分之一": 11300, "分数线": 11301, "两者": 11302, "拢": 11303, "在此之前": 11304, "梁某": 11305, "代替": 11306, "席会议": 11307, "间接": 11308, "淹@@": 11309, "而知": 11310, "军衔": 11311, "主罚": 11312, "湾@@": 11313, "全文": 11314, "项链": 11315, "趣": 11316, "榆林市": 11317, "最低工资": 11318, "行使": 11319, "今年年初": 11320, "活着": 11321, "慰": 11322, "某家": 11323, "部委": 11324, "破产": 11325, "通往": 11326, "般@@": 11327, "2006.@@": 11328, "发表声明": 11329, "菊": 11330, "竞争对手": 11331, "合作社": 11332, "窝@@": 11333, "脱落": 11334, "抓好": 11335, "首例": 11336, "经济学家": 11337, "闺@@": 11338, "检出": 11339, "棍@@": 11340, "犯罪分子": 11341, "安监": 11342, "通行@@": 11343, "动车": 11344, "家里人": 11345, "毕业@@": 11346, "鲜血": 11347, "恐吓": 11348, "斯科@@": 11349, "甜": 11350, "详情": 11351, "交涉": 11352, "任用": 11353, "起码": 11354, "敦促": 11355, "开业": 11356, "转为": 11357, "推迟": 11358, "偶然": 11359, "情景": 11360, "眠": 11361, "地质": 11362, "失职": 11363, "33@@": 11364, "3500": 11365, "盯@@": 11366, "南山": 11367, "wifi": 11368, "相互@@": 11369, "橡@@": 11370, "初步@@": 11371, "魔术": 11372, "地域": 11373, "公厕": 11374, "冯某": 11375, "青海省": 11376, "用力": 11377, "流产": 11378, "上空": 11379, "承办": 11380, "二线": 11381, "睁@@": 11382, "忌": 11383, "功夫": 11384, "格林": 11385, "威廉姆斯": 11386, "杜绝": 11387, "倒车": 11388, "新一代": 11389, "百货": 11390, "物理": 11391, "明显@@": 11392, "关门": 11393, "按时": 11394, "亚军": 11395, "意甲": 11396, "飙车": 11397, "搜查": 11398, "估算": 11399, "雷雨": 11400, "尽可能": 11401, "强制@@": 11402, "一枚": 11403, "险些": 11404, "瘫痪": 11405, "征集": 11406, "也门": 11407, "直属": 11408, "手脚": 11409, "多条": 11410, "病历": 11411, "建平": 11412, "外伤": 11413, "铅@@": 11414, "兄妹": 11415, "建房": 11416, "立法@@": 11417, "衔接": 11418, "一切@@": 11419, "惩处": 11420, "星级": 11421, "模样": 11422, "京报网": 11423, "us@@": 11424, "纱": 11425, "李娜": 11426, "本科@@": 11427, "命名": 11428, "米且": 11429, "林先生": 11430, "69@@": 11431, "5.5": 11432, "男篮": 11433, "单纯": 11434, "打砸": 11435, "mh370": 11436, "古巴": 11437, "一时间": 11438, "节假日": 11439, "谊": 11440, "决定书": 11441, "记录@@": 11442, "哨": 11443, "重型": 11444, "抓紧": 11445, "胞": 11446, "消防队员": 11447, "国际化": 11448, "梨@@": 11449, "气味": 11450, "贡": 11451, "成交@@": 11452, "覆": 11453, "打来": 11454, "名额": 11455, "pm@@": 11456, "西宁": 11457, "专人": 11458, "内向": 11459, "北海": 11460, "爱好者": 11461, "无意": 11462, "快攻": 11463, "请假": 11464, "教练@@": 11465, "换乘": 11466, "刮": 11467, "一辆车": 11468, "鲍@@": 11469, "球门": 11470, "桂": 11471, "1993": 11472, "将车": 11473, "大部": 11474, "塑料": 11475, "茨@@": 11476, "笛": 11477, "林书豪": 11478, "漫画": 11479, "送礼": 11480, "怎么回事": 11481, "事实@@": 11482, "个体": 11483, "责成": 11484, "创办": 11485, "合法@@": 11486, "网页": 11487, "触犯": 11488, "职业生涯": 11489, "层楼": 11490, "这套": 11491, "榆@@": 11492, "受访": 11493, "永昌": 11494, "将领": 11495, "学生家长": 11496, "业界": 11497, "使命": 11498, "人民日报": 11499, "接替": 11500, "飞船": 11501, "崔某": 11502, "成就": 11503, "停课": 11504, "合资": 11505, "从业@@": 11506, "高位": 11507, "维吾尔@@": 11508, "貌@@": 11509, "逐一": 11510, "忽然": 11511, "著": 11512, "追赃": 11513, "大胆": 11514, "握": 11515, "之日起": 11516, "布斯": 11517, "夫妻@@": 11518, "国家统计局": 11519, "清点": 11520, "王世@@": 11521, "人身": 11522, "紧闭": 11523, "te@@": 11524, "物体": 11525, "歧视": 11526, "拉德": 11527, "奥斯@@": 11528, "四周": 11529, "锦": 11530, "机组": 11531, "精准": 11532, "回忆@@": 11533, "交换": 11534, "晴@@": 11535, "纽@@": 11536, "拼命": 11537, "传染@@": 11538, "六个月": 11539, "郁": 11540, "放着": 11541, "填": 11542, "三环": 11543, "全国人大常委会": 11544, "欧阳": 11545, "隋@@": 11546, "脚下": 11547, "白血病": 11548, "本文": 11549, "中药材": 11550, "集体@@": 11551, "家门": 11552, "只会": 11553, "成龙": 11554, "现出": 11555, "伸出": 11556, "浆": 11557, "意向": 11558, "公务@@": 11559, "椒": 11560, "妥善": 11561, "火车票": 11562, "递": 11563, "取款": 11564, "弊": 11565, "再说": 11566, "鼠": 11567, "袋子": 11568, "入股": 11569, "详": 11570, "骤@@": 11571, "蜂@@": 11572, "中将": 11573, "通市": 11574, "领导人员": 11575, "胎儿": 11576, "缺席": 11577, "锐@@": 11578, "捉": 11579, "总决赛": 11580, "第二季度": 11581, "机动": 11582, "中央政治局": 11583, "市中心": 11584, "试验区": 11585, "早餐": 11586, "御@@": 11587, "饲@@": 11588, "映@@": 11589, "孩@@": 11590, "李俊": 11591, "收支": 11592, "大中@@": 11593, "膝盖": 11594, "张志@@": 11595, "乡政府": 11596, "小文": 11597, "依次": 11598, "崩溃": 11599, "伙同": 11600, "2003.@@": 11601, "杏@@": 11602, "急需": 11603, "失业": 11604, "邯郸": 11605, "折合": 11606, "刘晓@@": 11607, "80@@": 11608, "几十年": 11609, "北侧": 11610, "停运": 11611, "无法@@": 11612, "二季度": 11613, "周日": 11614, "城乡居民": 11615, "天朝": 11616, "王敏": 11617, "章子怡": 11618, "轨迹": 11619, "运转": 11620, "既有": 11621, "冬天": 11622, "大学毕业": 11623, "有利": 11624, "课堂": 11625, "喜爱": 11626, "方位": 11627, "一双": 11628, "武警@@": 11629, "宿舍楼": 11630, "午饭": 11631, "西奥": 11632, "渣": 11633, "陈志@@": 11634, "租借": 11635, "生态@@": 11636, "兑@@": 11637, "携": 11638, "政协委员": 11639, "动画": 11640, "公务用车": 11641, "塌陷": 11642, "电力@@": 11643, "此人": 11644, "和解": 11645, "蜜": 11646, "施行": 11647, "轰": 11648, "钱款": 11649, "执法@@": 11650, "遇上": 11651, "黔@@": 11652, "席位": 11653, "逛": 11654, "危化品": 11655, "34@@": 11656, "子里": 11657, "太平@@": 11658, "毛毛": 11659, "点名": 11660, "棋@@": 11661, "浇@@": 11662, "暂行@@": 11663, "贿@@": 11664, "总体@@": 11665, "力帆": 11666, "沦@@": 11667, "卵@@": 11668, "年终奖": 11669, "桌@@": 11670, "打招呼": 11671, "中小学": 11672, "班长": 11673, "aby": 11674, "他杀": 11675, "社局": 11676, "拨通": 11677, "长度": 11678, "大会@@": 11679, "干什么": 11680, "生活费": 11681, "扬言": 11682, "民政部门": 11683, "复牌": 11684, "巩固": 11685, "广西壮族自治区": 11686, "玲玲": 11687, "西甲": 11688, "惊喜": 11689, "出版@@": 11690, "ra@@": 11691, "整天": 11692, "伸手": 11693, "啤酒": 11694, "首饰": 11695, "布朗": 11696, "赠送": 11697, "第十二届": 11698, "相差": 11699, "海都": 11700, "激光": 11701, "今夏": 11702, "桐@@": 11703, "咬伤": 11704, "图像": 11705, "邱": 11706, "饶@@": 11707, "二手房": 11708, "新文化": 11709, "劫": 11710, "脂@@": 11711, "杜文": 11712, "女孩子": 11713, "化市": 11714, "这儿": 11715, "兆": 11716, "十几年": 11717, "赃": 11718, "奈@@": 11719, "三轮": 11720, "如同": 11721, "顺着": 11722, "偶像": 11723, "白宫": 11724, "流血": 11725, "直径": 11726, "副会长": 11727, "无证": 11728, "统计数据": 11729, "填报": 11730, "一封": 11731, "收窄": 11732, "蒲@@": 11733, "模仿": 11734, "遵循": 11735, "惨": 11736, "阴影": 11737, "找回": 11738, "卡车": 11739, "闸@@": 11740, "中说": 11741, "中央电视台": 11742, "强烈@@": 11743, "挑": 11744, "迅": 11745, "椅子": 11746, "往返": 11747, "堪称": 11748, "避风": 11749, "大叔": 11750, "碑@@": 11751, "哈尔": 11752, "栖@@": 11753, "1.1": 11754, "报料": 11755, "唇": 11756, "拍卖@@": 11757, "诞生": 11758, "资格@@": 11759, "哪怕": 11760, "付费": 11761, "宰@@": 11762, "愁": 11763, "宣": 11764, "过得": 11765, "楼层": 11766, "某个": 11767, "小幅": 11768, "半天": 11769, "新村": 11770, "执业": 11771, "构成@@": 11772, "弹药": 11773, "脚印": 11774, "社科院": 11775, "汁": 11776, "惹@@": 11777, "泳池": 11778, "技": 11779, "上港": 11780, "炼@@": 11781, "22@@": 11782, "缺阵": 11783, "景观": 11784, "刀具": 11785, "前夕": 11786, "白云@@": 11787, "任性": 11788, "接种": 11789, "抖": 11790, "颁@@": 11791, "if@@": 11792, "楼道": 11793, "参与@@": 11794, "基建": 11795, "韩某": 11796, "惨剧": 11797, "史密斯": 11798, "这部分": 11799, "追责": 11800, "亿股": 11801, "承接": 11802, "鸭": 11803, "王新@@": 11804, "烤": 11805, "一口气": 11806, "趁机": 11807, "解决问题": 11808, "目光": 11809, "指报": 11810, "提请": 11811, "北车": 11812, "tv": 11813, "定制": 11814, "庄村": 11815, "氰化@@": 11816, "公证": 11817, "99.9@@": 11818, "点钟": 11819, "全额": 11820, "上山": 11821, "英格兰": 11822, "罐车": 11823, "用房": 11824, "栏杆": 11825, "壶": 11826, "探测器": 11827, "节约": 11828, "华商": 11829, "海事": 11830, "社会各界": 11831, "钢筋": 11832, "尔德": 11833, "心跳": 11834, "发到": 11835, "住所": 11836, "黄宏": 11837, "专家@@": 11838, "pp@@": 11839, "兑": 11840, "车库": 11841, "小组@@": 11842, "税务": 11843, "350": 11844, "逆": 11845, "抽调": 11846, "挑选": 11847, "le": 11848, "涵盖": 11849, "廉洁自律": 11850, "骑车": 11851, "填写": 11852, "涅@@": 11853, "刷卡": 11854, "互联@@": 11855, "自贸": 11856, "荔@@": 11857, "地铁站": 11858, "繁荣": 11859, "民政": 11860, "主观": 11861, "虚": 11862, "涵@@": 11863, "行动@@": 11864, "己@@": 11865, "发烧": 11866, "大赛": 11867, "毫无@@": 11868, "颗@@": 11869, "塑": 11870, "见过": 11871, "辟@@": 11872, "做事": 11873, "空地": 11874, "强攻": 11875, "化学品": 11876, "逃走": 11877, "法人": 11878, "客流": 11879, "勉强": 11880, "短时间": 11881, "给钱": 11882, "弯": 11883, "党的@@": 11884, "撒": 11885, "办学": 11886, "翟@@": 11887, "再生": 11888, "仑": 11889, "丁俊晖": 11890, "个人账户": 11891, "驻马@@": 11892, "抄": 11893, "巨响": 11894, "偏僻": 11895, "脐@@": 11896, "2011.@@": 11897, "重重": 11898, "忙碌": 11899, "迈": 11900, "开学": 11901, "林市": 11902, "股本": 11903, "1988": 11904, "糊": 11905, "患儿": 11906, "奸@@": 11907, "再审": 11908, "筛@@": 11909, "服务区": 11910, "暑期": 11911, "贪污罪": 11912, "舆@@": 11913, "主政": 11914, "引擎": 11915, "张学@@": 11916, "早早": 11917, "拉着": 11918, "房租": 11919, "外婆": 11920, "总值": 11921, "点赞": 11922, "成年": 11923, "山西@@": 11924, "投案": 11925, "溺亡": 11926, "观测": 11927, "骗局": 11928, "希拉里": 11929, "万里": 11930, "119": 11931, "经济学": 11932, "恢复正常": 11933, "相约": 11934, "2015.@@": 11935, "铁路@@": 11936, "主办": 11937, "一出": 11938, "12306": 11939, "第二十@@": 11940, "罢": 11941, "210@@": 11942, "增量": 11943, "暴风": 11944, "地里": 11945, "美食": 11946, "黎明": 11947, "探望": 11948, "大肆": 11949, "触": 11950, "爸爸妈妈": 11951, "模拟": 11952, "钞票": 11953, "格里@@": 11954, "采取@@": 11955, "勘探": 11956, "昔日": 11957, "幽@@": 11958, "上榜": 11959, "55@@": 11960, "水市": 11961, "军舰": 11962, "观察@@": 11963, "长顺": 11964, "剩@@": 11965, "卡通": 11966, "65@@": 11967, "统": 11968, "货运": 11969, "有何": 11970, "南方周末": 11971, "预订": 11972, "清算": 11973, "使用权": 11974, "报社": 11975, "雨量": 11976, "较量": 11977, "省会": 11978, "遣返": 11979, "大胜": 11980, "作坊": 11981, "发酵": 11982, "私下": 11983, "不符": 11984, "一脸": 11985, "章程": 11986, "珍贵": 11987, "洗手@@": 11988, "一女": 11989, "限于": 11990, "消毒": 11991, "口袋": 11992, "公办": 11993, "居住@@": 11994, "尽量少": 11995, "4.5": 11996, "咨询@@": 11997, "祁@@": 11998, "峡": 11999, "蔡某": 12000, "隐蔽": 12001, "下落": 12002, "仕途": 12003, "驱车": 12004, "没人@@": 12005, "四是": 12006, "第七@@": 12007, "连线": 12008, "水源": 12009, "廖某": 12010, "仰": 12011, "对峙": 12012, "上周五": 12013, "榆林": 12014, "滨海新区": 12015, "进军": 12016, "两岁": 12017, "悟": 12018, "箭": 12019, "扰@@": 12020, "小小": 12021, "设在": 12022, "网购": 12023, "广州日报": 12024, "资费": 12025, "置换": 12026, "发短信": 12027, "原先": 12028, "混": 12029, "嘴巴": 12030, "拘役": 12031, "及时@@": 12032, "汤普森": 12033, "各界": 12034, "空旷": 12035, "荒": 12036, "浑@@": 12037, "海岸": 12038, "管理机构": 12039, "配件": 12040, "批发": 12041, "一向": 12042, "疯": 12043, "手术@@": 12044, "聪明": 12045, "岗区": 12046, "针对性": 12047, "90@@": 12048, "纬": 12049, "取代": 12050, "上证@@": 12051, "东区": 12052, "回扣": 12053, "居委会": 12054, "监护": 12055, "湿地": 12056, "横幅": 12057, "过节": 12058, "裂缝": 12059, "谎@@": 12060, "西北@@": 12061, "奔驰车": 12062, "风暴": 12063, "好几@@": 12064, "王健林": 12065, "清洗": 12066, "激发": 12067, "新西兰": 12068, "月薪": 12069, "帕": 12070, "开展@@": 12071, "畜": 12072, "补办": 12073, "层层": 12074, "不怕": 12075, "拦": 12076, "微笑": 12077, "浪漫": 12078, "电话号码": 12079, "阿富汗": 12080, "留有": 12081, "嘱": 12082, "禁令": 12083, "手术室": 12084, "双向": 12085, "航局": 12086, "东南@@": 12087, "那位": 12088, "增至": 12089, "45@@": 12090, "机票": 12091, "新版": 12092, "小霞": 12093, "江门": 12094, "稽@@": 12095, "公章": 12096, "战后": 12097, "带队": 12098, "绑匪": 12099, "意见@@": 12100, "车位": 12101, "冥币": 12102, "抽查": 12103, "杨卫泽": 12104, "敲门": 12105, "早点": 12106, "隶@@": 12107, "转到": 12108, "低保": 12109, "齐全": 12110, "细致": 12111, "分流": 12112, "乎@@": 12113, "袭@@": 12114, "远程": 12115, "重启": 12116, "导向": 12117, "二年": 12118, "调查核实": 12119, "摆放": 12120, "南方@@": 12121, "菇": 12122, "in": 12123, "1990": 12124, "六七@@": 12125, "贝尔@@": 12126, "弟子": 12127, "连云@@": 12128, "雾@@": 12129, "更改": 12130, "布置": 12131, "寺庙": 12132, "原谅": 12133, "疑点": 12134, "辞退": 12135, "虚构": 12136, "两边": 12137, "搏": 12138, "说不@@": 12139, "征求": 12140, "水泥@@": 12141, "墨": 12142, "轰炸机": 12143, "理事会": 12144, "一分钱": 12145, "咳嗽": 12146, "降到": 12147, "枯@@": 12148, "吸引力": 12149, "降落": 12150, "好处费": 12151, "物价局": 12152, "疑惑": 12153, "统一@@": 12154, "流感": 12155, "这段": 12156, "医疗保险": 12157, "曙光": 12158, "树林": 12159, "议会": 12160, "榜首": 12161, "垮塌": 12162, "抄袭": 12163, "绩": 12164, "墙壁": 12165, "柴": 12166, "行为@@": 12167, "冬季": 12168, "甸@@": 12169, "改革方案": 12170, "泳": 12171, "行李@@": 12172, "芳芳": 12173, "二手@@": 12174, "哥伦@@": 12175, "美金": 12176, "符@@": 12177, "虚拟": 12178, "十足": 12179, "传说": 12180, "季节": 12181, "东南亚": 12182, "匕首": 12183, "教官": 12184, "执政": 12185, "德市": 12186, "郊区": 12187, "交通安全": 12188, "一年@@": 12189, "龙头": 12190, "开办": 12191, "视察": 12192, "国脚": 12193, "节日": 12194, "子俩": 12195, "朝阳区": 12196, "南通": 12197, "码@@": 12198, "体制改革": 12199, "大后": 12200, "省部级": 12201, "来得及": 12202, "&": 12203, "文科": 12204, "城墙": 12205, "办证": 12206, "驼": 12207, "少量": 12208, "常人": 12209, "个性": 12210, "保卫@@": 12211, "小美": 12212, "班上": 12213, "掏@@": 12214, "约翰逊": 12215, "小儿子": 12216, "在此期间": 12217, "纽约@@": 12218, "航行": 12219, "一到": 12220, "紧密": 12221, "器材": 12222, "西区": 12223, "放大": 12224, "恰好": 12225, "扶持": 12226, "污染@@": 12227, "出炉": 12228, "雇": 12229, "动脉": 12230, "曝@@": 12231, "养生": 12232, "一男一女": 12233, "附加@@": 12234, "工程项目": 12235, "公约": 12236, "典礼": 12237, "送达": 12238, "票据": 12239, "闷@@": 12240, "行进": 12241, "深深": 12242, "议题": 12243, "蚀": 12244, "有无": 12245, "勉": 12246, "渤@@": 12247, "上路": 12248, "同伙": 12249, "换人": 12250, "安全性": 12251, "分红": 12252, "杂": 12253, "道路交通": 12254, "专注": 12255, "议院": 12256, "鲁能": 12257, "曼谷": 12258, "准入": 12259, "菏@@": 12260, "洪波": 12261, "z": 12262, "全球@@": 12263, "还好": 12264, "治国": 12265, "国税局": 12266, "通讯@@": 12267, "出庭": 12268, "买下": 12269, "律": 12270, "全国人大": 12271, "例外": 12272, "度假": 12273, "痴@@": 12274, "防盗@@": 12275, "悲痛": 12276, "85@@": 12277, "换上": 12278, "保利": 12279, "雨水": 12280, "万块": 12281, "一大早": 12282, "基尼": 12283, "谈起": 12284, "来电": 12285, "警务": 12286, "32@@": 12287, "户型": 12288, "中山市": 12289, "澳": 12290, "坠入": 12291, "中国证监会": 12292, "人心": 12293, "街坊": 12294, "找个": 12295, "导师": 12296, "对外@@": 12297, "一日": 12298, "经济网": 12299, "牟利": 12300, "逃生": 12301, "大选": 12302, "挂断": 12303, "成员国": 12304, "海军@@": 12305, "党政机关": 12306, "郸@@": 12307, "111": 12308, "回事": 12309, "储存": 12310, "促使": 12311, "贩子": 12312, "取胜": 12313, "一堆": 12314, "巩@@": 12315, "媒@@": 12316, "注意@@": 12317, "海报": 12318, "所得税": 12319, "twitter": 12320, "退票": 12321, "乐乐": 12322, "余远辉": 12323, "居住证": 12324, "太平": 12325, "依托": 12326, "新生儿": 12327, "柱@@": 12328, "星期@@": 12329, "三地": 12330, "昧": 12331, "保守": 12332, "欺诈": 12333, "硝@@": 12334, "大巴车": 12335, "违章": 12336, "避雨": 12337, "监视": 12338, "执法局": 12339, "博弈": 12340, "这样@@": 12341, "cba": 12342, "环卫工人": 12343, "拉莫斯": 12344, "简易": 12345, "多时": 12346, "间谍": 12347, "致人": 12348, "笔记@@": 12349, "卧": 12350, "审查起诉": 12351, "170": 12352, "小孩子": 12353, "昊": 12354, "懂事": 12355, "中药": 12356, "连锁": 12357, "认购": 12358, "条约": 12359, "全会": 12360, "默克尔": 12361, "索取": 12362, "将要": 12363, "爆出": 12364, "胜局": 12365, "指引": 12366, "欺负": 12367, "不禁": 12368, "兄弟@@": 12369, "大都": 12370, "包扎": 12371, "八路军": 12372, "溶@@": 12373, "赋予": 12374, "存折": 12375, "安静": 12376, "亚太@@": 12377, "台阶": 12378, "cpi": 12379, "基本工资": 12380, "坝@@": 12381, "湛@@": 12382, "马超群": 12383, "中海": 12384, "凯尔特人": 12385, "高调": 12386, "叹@@": 12387, "市级": 12388, "斜": 12389, "肥": 12390, "液体": 12391, "磋商": 12392, "岐@@": 12393, "排行榜": 12394, "剧烈": 12395, "1300": 12396, "轮胎": 12397, "富裕": 12398, "q": 12399, "中途": 12400, "增大": 12401, "脚踢": 12402, "手机号码": 12403, "前夫": 12404, "殖": 12405, "只不过": 12406, "六个": 12407, "中小企业": 12408, "存单": 12409, "省内": 12410, "日后": 12411, "股份@@": 12412, "国际足联": 12413, "耽误": 12414, "忍受": 12415, "沂@@": 12416, "财产@@": 12417, "奖项": 12418, "倾斜": 12419, "卡特": 12420, "如果说": 12421, "堵住": 12422, "元素": 12423, "长远": 12424, "全长": 12425, "暴涨": 12426, "力气": 12427, "盈": 12428, "耶": 12429, "治安管理": 12430, "容量": 12431, "练习": 12432, "源头": 12433, "财新网": 12434, "可怕": 12435, "埃及": 12436, "工作室": 12437, "浸@@": 12438, "之初": 12439, "时光": 12440, "创业@@": 12441, "街道办": 12442, "胎@@": 12443, "同日": 12444, "刁@@": 12445, "逃亡": 12446, "强拆": 12447, "摧毁": 12448, "偷走": 12449, "动用": 12450, "种类": 12451, "无辜": 12452, "内阁": 12453, "赶回": 12454, "逾期": 12455, "fi@@": 12456, "法学院": 12457, "处理@@": 12458, "利润@@": 12459, "下跪": 12460, "抢劫罪": 12461, "利用@@": 12462, "最先": 12463, "住院@@": 12464, "长春市": 12465, "标价": 12466, "传唤": 12467, "目录": 12468, "污": 12469, "打牌": 12470, "竞赛": 12471, "濒@@": 12472, "大宗": 12473, "最高检": 12474, "改正": 12475, "外观": 12476, "9000": 12477, "停业": 12478, "抵制": 12479, "注入": 12480, "北省委": 12481, "交由": 12482, "洋洋": 12483, "调集": 12484, "伙人": 12485, "两处": 12486, "梧@@": 12487, "不解": 12488, "募捐": 12489, "学籍": 12490, "除非": 12491, "适度": 12492, "封信": 12493, "苹果公司": 12494, "南侧": 12495, "杆@@": 12496, "老实": 12497, "公公": 12498, "接手": 12499, "绝大部分": 12500, "无缘": 12501, "难免": 12502, "乐园": 12503, "两车": 12504, "火灾@@": 12505, "瓦斯": 12506, "离异": 12507, "德州": 12508, "明火": 12509, "斯堡": 12510, "削减": 12511, "物业@@": 12512, "突击": 12513, "线下": 12514, "里程": 12515, "柳州": 12516, "中医": 12517, "产业链": 12518, "苏荣": 12519, "愤@@": 12520, "密切@@": 12521, "手腕": 12522, "一地": 12523, "风景": 12524, "暗示": 12525, "重申": 12526, "宠物@@": 12527, "勇敢": 12528, "商城": 12529, "纸条": 12530, "接应": 12531, "通缉": 12532, "闲": 12533, "伤痕": 12534, "焦急": 12535, "妥@@": 12536, "410@@": 12537, "降至": 12538, "导报": 12539, "突入": 12540, "创建": 12541, "拉动": 12542, "滥用": 12543, "首都@@": 12544, "地理": 12545, "腺@@": 12546, "夷@@": 12547, "de@@": 12548, "赡@@": 12549, "浮出": 12550, "依规": 12551, "三峡": 12552, "劣": 12553, "一类": 12554, "传到": 12555, "长途": 12556, "无数": 12557, "脑袋": 12558, "饰@@": 12559, "愉@@": 12560, "毫不@@": 12561, "鄂尔多@@": 12562, "薛": 12563, "盗窃罪": 12564, "县市": 12565, "干细胞": 12566, "春成": 12567, "犯罪行为": 12568, "擅@@": 12569, "占地": 12570, "为啥": 12571, "天气@@": 12572, "扛": 12573, "重回": 12574, "掩埋": 12575, "研究室": 12576, "爆竹": 12577, "icu": 12578, "拦住": 12579, "渐": 12580, "2.4": 12581, "昌县": 12582, "得不到": 12583, "apec": 12584, "汇金": 12585, "战平": 12586, "肝": 12587, "年度@@": 12588, "竞": 12589, "倍@@": 12590, "九江": 12591, "申请人": 12592, "狗狗": 12593, "宁波@@": 12594, "裴@@": 12595, "文物局": 12596, "卜@@": 12597, "庄市": 12598, "拼车": 12599, "99.8@@": 12600, "三板": 12601, "↓": 12602, "检察长": 12603, "纲@@": 12604, "原材料": 12605, "五大": 12606, "垫付": 12607, "幕后": 12608, "23.@@": 12609, "托人": 12610, "撤": 12611, "走过": 12612, "企稳": 12613, "工作者": 12614, "例子": 12615, "寿县": 12616, "兴市": 12617, "烦": 12618, "皆@@": 12619, "特里": 12620, "六年": 12621, "栓": 12622, "印章": 12623, "粹": 12624, "兑换": 12625, "中队长": 12626, "捞@@": 12627, "副驾驶": 12628, "贪污@@": 12629, "敬老院": 12630, "鸥": 12631, "高通": 12632, "归来": 12633, "踪@@": 12634, "国土资源@@": 12635, "莱斯": 12636, "经纪": 12637, "出头": 12638, "揭开": 12639, "酿@@": 12640, "水利": 12641, "德国@@": 12642, "cm": 12643, "审计@@": 12644, "上交": 12645, "常务委员会": 12646, "埠@@": 12647, "越位": 12648, "观者": 12649, "抑制": 12650, "日本首相": 12651, "蚂@@": 12652, "株": 12653, "锤@@": 12654, "公共交通": 12655, "长治@@": 12656, "堵塞": 12657, "法人代表": 12658, "近来": 12659, "药监局": 12660, "饭菜": 12661, "兔": 12662, "之上": 12663, "丸": 12664, "制造商": 12665, "气候": 12666, "不必": 12667, "饮用水": 12668, "而据": 12669, "纠结": 12670, "随手": 12671, "致命": 12672, "过大": 12673, "军官": 12674, "已婚": 12675, "船员": 12676, "惯例": 12677, "漳州市": 12678, "幻": 12679, "日内": 12680, "达尔": 12681, "称呼": 12682, "身旁": 12683, "偶": 12684, "拐卖": 12685, "频率": 12686, "退回": 12687, "降雪": 12688, "不对劲": 12689, "妇联": 12690, "一汽": 12691, "算了": 12692, "歉意": 12693, "前段时间": 12694, "辱": 12695, "技术人员": 12696, "评级": 12697, "喇叭": 12698, "采取措施": 12699, "司令": 12700, "照看": 12701, "控股@@": 12702, "树木": 12703, "践@@": 12704, "敲诈勒索": 12705, "蹈": 12706, "酬": 12707, "拉扯": 12708, "搁浅": 12709, "王国": 12710, "服务器": 12711, "那年": 12712, "新民": 12713, "乳业": 12714, "捣@@": 12715, "画家": 12716, "实质": 12717, "有事": 12718, "亨@@": 12719, "群里": 12720, "负面@@": 12721, "公主": 12722, "淀": 12723, "迎": 12724, "重审": 12725, "不宜": 12726, "家境": 12727, "神奇": 12728, "社会保险": 12729, "脂": 12730, "青年@@": 12731, "颈@@": 12732, "盲目": 12733, "所有@@": 12734, "旅行@@": 12735, "绸@@": 12736, "简": 12737, "中区": 12738, "挖出": 12739, "迭@@": 12740, "小宝": 12741, "救护": 12742, "村镇": 12743, "殖@@": 12744, "衰@@": 12745, "证据不足": 12746, "福德": 12747, "塌方": 12748, "凭证": 12749, "骑着": 12750, "驳": 12751, "支持@@": 12752, "四川省委": 12753, "安东@@": 12754, "施工方": 12755, "不在@@": 12756, "善良": 12757, "张家": 12758, "乖@@": 12759, "挡风玻璃": 12760, "中国足协": 12761, "河市": 12762, "武汉大学": 12763, "310@@": 12764, "拥": 12765, "奥运会": 12766, "键": 12767, "辑": 12768, "杀手": 12769, "日均": 12770, "当路表": 12771, "汾@@": 12772, "亚泰": 12773, "人流": 12774, "沿途": 12775, "周本顺": 12776, "当着": 12777, "成年人": 12778, "首度": 12779, "笑容": 12780, "近两年": 12781, "钻": 12782, "第六": 12783, "百米": 12784, "绯闻": 12785, "不中": 12786, "廊坊": 12787, "职守": 12788, "马英九": 12789, "有名": 12790, "塞尔": 12791, "绩效": 12792, "圈子": 12793, "本田": 12794, "复核": 12795, "铲": 12796, "人力": 12797, "瘤": 12798, "中国青年报": 12799, "丙@@": 12800, "事态": 12801, "下雨": 12802, "他俩": 12803, "抱住": 12804, "颖@@": 12805, "亲生@@": 12806, "ba@@": 12807, "套餐": 12808, "上班@@": 12809, "搏@@": 12810, "从来不": 12811, "启事": 12812, "学科": 12813, "钢铁@@": 12814, "不法分子": 12815, "1100": 12816, "诺维奇": 12817, "照料": 12818, "迎战": 12819, "王思聪": 12820, "娘家": 12821, "有趣": 12822, "准备@@": 12823, "划定": 12824, "改装": 12825, "处理厂": 12826, "鹰@@": 12827, "48@@": 12828, "高峰期": 12829, "天前": 12830, "邯@@": 12831, "抢修": 12832, "分割": 12833, "椎": 12834, "犬@@": 12835, "试卷": 12836, "月末": 12837, "小龙": 12838, "下角": 12839, "北站": 12840, "租车": 12841, "保时捷": 12842, "计算@@": 12843, "不来": 12844, "判罚": 12845, "案发时": 12846, "房产证": 12847, "侄子": 12848, "南区": 12849, "不好意思": 12850, "未婚": 12851, "传统@@": 12852, "29.@@": 12853, "2008.@@": 12854, "天堂": 12855, "穷@@": 12856, "严肃@@": 12857, "三角": 12858, "酒驾": 12859, "猜@@": 12860, "夕@@": 12861, "测量": 12862, "意志": 12863, "初步判断": 12864, "陇@@": 12865, "兄": 12866, "揽@@": 12867, "郜林": 12868, "刑讯逼供": 12869, "细菌": 12870, "摆摊": 12871, "简称": 12872, "郜@@": 12873, "孝": 12874, "地下室": 12875, "{": 12876, "忧": 12877, "一片@@": 12878, "融": 12879, "排名@@": 12880, "党政": 12881, "区划": 12882, "抬头": 12883, "泗@@": 12884, "普及": 12885, "杨子": 12886, "解决方案": 12887, "钉@@": 12888, "落下": 12889, "女排": 12890, "斩@@": 12891, "泉州市": 12892, "认出": 12893, "单刀": 12894, "不大": 12895, "同情": 12896, "粘@@": 12897, "三种": 12898, "绪@@": 12899, "尚无": 12900, "facebook": 12901, "小周": 12902, "杨秀珠": 12903, "丽丽": 12904, "新视野": 12905, "外形": 12906, "党校": 12907, "文中": 12908, "一经": 12909, "早年": 12910, "蹊跷": 12911, "最新@@": 12912, "欠下": 12913, "匿@@": 12914, "严厉打击": 12915, "赃物": 12916, "骄@@": 12917, "法新社": 12918, "蝇": 12919, "询": 12920, "坎": 12921, "奋": 12922, "三分之一": 12923, "一小": 12924, "伤心": 12925, "娱乐场所": 12926, "搜集": 12927, "骑行": 12928, "当面": 12929, "个子": 12930, "事业@@": 12931, "侥@@": 12932, "履职": 12933, "泸@@": 12934, "西县": 12935, "窝案": 12936, "德森": 12937, "糖尿病": 12938, "党纪@@": 12939, "招投标": 12940, "绵阳": 12941, "鹤": 12942, "学业": 12943, "违法违纪": 12944, "筹备": 12945, "敢@@": 12946, "遗弃": 12947, "萎缩": 12948, "清除": 12949, "模特": 12950, "网店": 12951, "读本": 12952, "书籍": 12953, "点过": 12954, "低射": 12955, "指向": 12956, "先前": 12957, "接通": 12958, "诱": 12959, "敛": 12960, "后场": 12961, "28.@@": 12962, "描@@": 12963, "谁@@": 12964, "后门": 12965, "型号": 12966, "妨碍": 12967, "套现": 12968, "琦": 12969, "中级法院": 12970, "国际米兰": 12971, "零部件": 12972, "中考": 12973, "加州": 12974, "公共安全": 12975, "旨": 12976, "奶茶": 12977, "羡慕": 12978, "食品@@": 12979, "一个个": 12980, "载有": 12981, "过重": 12982, "律师@@": 12983, "敌人": 12984, "尝": 12985, "伯特": 12986, "佣@@": 12987, "名誉": 12988, "减弱": 12989, "权限": 12990, "械": 12991, "cfp": 12992, "浅": 12993, "不乏": 12994, "作案嫌疑": 12995, "公交站": 12996, "煤气": 12997, "小行星": 12998, "长相": 12999, "受欢迎": 13000, "港市": 13001, "接过": 13002, "留意": 13003, "班车": 13004, "四次": 13005, "内线": 13006, "约翰": 13007, "融入": 13008, "铝@@": 13009, "管理制度": 13010, "千万元": 13011, "璐": 13012, "搅@@": 13013, "辣": 13014, "牙齿": 13015, "椒@@": 13016, "深成指": 13017, "簿": 13018, "跳水": 13019, "信用@@": 13020, "黑社会": 13021, "惊吓": 13022, "取缔": 13023, "务工@@": 13024, "瑜": 13025, "接电话": 13026, "ht@@": 13027, "房源": 13028, "燃油": 13029, "钠": 13030, "难民": 13031, "控烟": 13032, "光耀": 13033, "完后": 13034, "两中": 13035, "畅通": 13036, "三条": 13037, "身价": 13038, "国务@@": 13039, "恰": 13040, "立柱": 13041, "ex@@": 13042, "页面": 13043, "惹": 13044, "广大@@": 13045, "咸阳": 13046, "老两口": 13047, "防务": 13048, "所在@@": 13049, "停靠": 13050, "偷拍": 13051, "精神病人": 13052, "远角": 13053, "菊@@": 13054, "烨": 13055, "赵志@@": 13056, "多元化": 13057, "表白": 13058, "时间表": 13059, "芸": 13060, "光线": 13061, "中国日报": 13062, "火化": 13063, "小便": 13064, "直辖市": 13065, "评选": 13066, "三门@@": 13067, "遗": 13068, "副教授": 13069, "代码": 13070, "饰演": 13071, "好几个": 13072, "潭@@": 13073, "一局": 13074, "2000.@@": 13075, "尔顿": 13076, "南阳": 13077, "来源于": 13078, "到案": 13079, "烧毁": 13080, "知识产权": 13081, "过分": 13082, "受不了": 13083, "也@@": 13084, "国泰君安": 13085, "土豆": 13086, "农作物": 13087, "空饷": 13088, "腹泻": 13089, "乏@@": 13090, "勘@@": 13091, "崛起": 13092, "服刑人员": 13093, "抑@@": 13094, "合伙": 13095, "零时": 13096, "信阳": 13097, "叫做": 13098, "摊位": 13099, "辅导": 13100, "渔业": 13101, "斯蒂@@": 13102, "闯": 13103, "祖国": 13104, "富士康": 13105, "畏": 13106, "党工委": 13107, "厂里": 13108, "缸": 13109, "突发事件": 13110, "小事": 13111, "计划@@": 13112, "玺": 13113, "民生@@": 13114, "用户@@": 13115, "离队": 13116, "况@@": 13117, "肆@@": 13118, "35%": 13119, "前沿": 13120, "非法拘禁": 13121, "迟到": 13122, "际@@": 13123, "桑": 13124, "辩称": 13125, "澳洲": 13126, "崩@@": 13127, "白云": 13128, "斯顿": 13129, "价值观": 13130, "慰安@@": 13131, "首日": 13132, "名校": 13133, "方某": 13134, "咋@@": 13135, "城镇居民": 13136, "紫": 13137, "玫@@": 13138, "兵团": 13139, "统战部长": 13140, "匿名": 13141, "牧": 13142, "此番": 13143, "机长": 13144, "寝室": 13145, "漯@@": 13146, "祖名": 13147, "剧组": 13148, "受骗": 13149, "货币@@": 13150, "三十": 13151, "追究其": 13152, "迈克尔": 13153, "患@@": 13154, "蜜@@": 13155, "司令@@": 13156, "防汛": 13157, "罚单": 13158, "元区": 13159, "建设银行": 13160, "进口@@": 13161, "嫂": 13162, "民营企业": 13163, "智力": 13164, "马路上": 13165, "乃@@": 13166, "瘫": 13167, "殡葬": 13168, "宅@@": 13169, "的哥": 13170, "富有": 13171, "沉船": 13172, "母女": 13173, "各省": 13174, "藉": 13175, "主治@@": 13176, "总价": 13177, "渣@@": 13178, "伺@@": 13179, "拥抱": 13180, "前科": 13181, "选人": 13182, "店面": 13183, "这栋": 13184, "调查报告": 13185, "南市": 13186, "蘑@@": 13187, "珠三角": 13188, "有的是": 13189, "中西部": 13190, "充当": 13191, "呆@@": 13192, "顶级": 13193, "长期@@": 13194, "明书": 13195, "掐": 13196, "孩": 13197, "从严治党": 13198, "摊主": 13199, "韩元": 13200, "顶层": 13201, "25.@@": 13202, "蚊@@": 13203, "一说": 13204, "落款": 13205, "一球": 13206, "舅舅": 13207, "语音": 13208, "洼@@": 13209, "ad": 13210, "表彰": 13211, "飙升": 13212, "关切": 13213, "芙@@": 13214, "保住": 13215, "双腿": 13216, "暂未": 13217, "漫长": 13218, "定义": 13219, "器械": 13220, "邑@@": 13221, "公投": 13222, "游戏@@": 13223, "严密": 13224, "直传": 13225, "足球@@": 13226, "白恩培": 13227, "小李": 13228, "宋利": 13229, "延期": 13230, "法定@@": 13231, "存储": 13232, "眼下": 13233, "缆": 13234, "挂钩": 13235, "工业园区": 13236, "侧面": 13237, "娱乐圈": 13238, "未遂": 13239, "砍刀": 13240, "不敌": 13241, "誓": 13242, "路径": 13243, "悬念": 13244, "巡视员": 13245, "清白": 13246, "原创": 13247, "机身": 13248, "络@@": 13249, "开行": 13250, "中国银行": 13251, "作证": 13252, "面具": 13253, "适量": 13254, "几人": 13255, "商会": 13256, "濮@@": 13257, "搜捕": 13258, "看管": 13259, "衬@@": 13260, "多发": 13261, "枫@@": 13262, "垂直": 13263, "新车": 13264, "湖人@@": 13265, "索尼": 13266, "宪": 13267, "购物@@": 13268, "探讨": 13269, "暧@@": 13270, "频": 13271, "商务部": 13272, "坤@@": 13273, "组织者": 13274, "专家组": 13275, "云南@@": 13276, "筑": 13277, "残留": 13278, "ec@@": 13279, "充": 13280, "限额": 13281, "诫": 13282, "厂长": 13283, "哄": 13284, "斧@@": 13285, "叠@@": 13286, "放入": 13287, "舌": 13288, "米亚": 13289, "额外": 13290, "刷新": 13291, "程慕阳": 13292, "藏獒": 13293, "慎": 13294, "防火": 13295, "刘汉": 13296, "鹿晗": 13297, "苏军": 13298, "后勤@@": 13299, "奠@@": 13300, "履新": 13301, "拿来": 13302, "招呼": 13303, "埔@@": 13304, "腐败问题": 13305, "喊话": 13306, "千米": 13307, "换成": 13308, "推开": 13309, "逗@@": 13310, "万户": 13311, "乖": 13312, "坚称": 13313, "婚宴": 13314, "侨": 13315, "胺": 13316, "补时": 13317, "蜀@@": 13318, "人寿": 13319, "为生": 13320, "过期": 13321, "职能部门": 13322, "遗嘱": 13323, "管所": 13324, "文物保护": 13325, "扒@@": 13326, "盾": 13327, "长寿": 13328, "维持原判": 13329, "知晓": 13330, "工商部门": 13331, "乱象": 13332, "反法西斯战争": 13333, "废墟": 13334, "深处": 13335, "号称": 13336, "文化遗产": 13337, "放行": 13338, "阐@@": 13339, "123@@": 13340, "工商银行": 13341, "她家": 13342, "找人": 13343, "加以": 13344, "世锦赛": 13345, "竞选": 13346, "绕行": 13347, "盘面": 13348, "完好": 13349, "懂得": 13350, "珊": 13351, "屠杀": 13352, "挠": 13353, "尼尔": 13354, "老年@@": 13355, "工程款": 13356, "向南": 13357, "佩戴": 13358, "放宽": 13359, "陶某": 13360, "乘务员": 13361, "做手术": 13362, "焦虑": 13363, "敦@@": 13364, "被动": 13365, "姑姑": 13366, "廉洁": 13367, "搜": 13368, "放火": 13369, "水电": 13370, "幕式": 13371, "送入": 13372, "抽烟": 13373, "化工@@": 13374, "59@@": 13375, "敛@@": 13376, "质问": 13377, "中超联赛": 13378, "北京国安": 13379, "囚@@": 13380, "亚冠": 13381, "庐@@": 13382, "熙@@": 13383, "退款": 13384, "泳@@": 13385, "goog@@": 13386, "莫雷@@": 13387, "任期": 13388, "尼克": 13389, "狮": 13390, "上行": 13391, "王文@@": 13392, "冶@@": 13393, "羽": 13394, "原定": 13395, "示范@@": 13396, "杰伦": 13397, "派遣": 13398, "热爱": 13399, "一分钟": 13400, "狭窄": 13401, "公职": 13402, "敢于": 13403, "赶上": 13404, "加斯": 13405, "不论": 13406, "劳务": 13407, "特别@@": 13408, "专项@@": 13409, "头晕": 13410, "箱子": 13411, "2018": 13412, "沉重": 13413, "漆@@": 13414, "零食": 13415, "揪@@": 13416, "德尔": 13417, "ri@@": 13418, "旅游业": 13419, "燃料": 13420, "亚马逊": 13421, "欠条": 13422, "警务@@": 13423, "篷": 13424, "处理结果": 13425, "成都@@": 13426, "阳河": 13427, "最强": 13428, "抛弃": 13429, "该项": 13430, "滞": 13431, "审计署": 13432, "关押": 13433, "动不动": 13434, "更高": 13435, "百万元": 13436, "摸排": 13437, "时分": 13438, "冀@@": 13439, "善后工作": 13440, "评审": 13441, "87@@": 13442, "降级": 13443, "特尔": 13444, "精心": 13445, "停电": 13446, "手铐": 13447, "公安民警": 13448, "国民@@": 13449, "常务会议": 13450, "过剩": 13451, "聊天@@": 13452, "细化": 13453, "秉@@": 13454, "卸": 13455, "挡住": 13456, "中奖": 13457, "拦下": 13458, "葛天": 13459, "荆州": 13460, "执行官": 13461, "病假条": 13462, "em@@": 13463, "节点": 13464, "厂区": 13465, "超生": 13466, "约会": 13467, "特斯拉": 13468, "标语": 13469, "米尔": 13470, "弗": 13471, "温馨": 13472, "戒毒": 13473, "几率": 13474, "傲": 13475, "启用": 13476, "阳性": 13477, "辅": 13478, "便捷": 13479, "坠下": 13480, "陶喆": 13481, "裙@@": 13482, "危险品": 13483, "长期以来": 13484, "远县": 13485, "中间人": 13486, "海事@@": 13487, "职务犯罪": 13488, "阎@@": 13489, "疼@@": 13490, "睿": 13491, "导航": 13492, "无线": 13493, "停车@@": 13494, "中间@@": 13495, "质检": 13496, "河里": 13497, "hu@@": 13498, "家庭暴力": 13499, "咖啡@@": 13500, "理财@@": 13501, "前者": 13502, "准则": 13503, "包围": 13504, "杜某": 13505, "东北部": 13506, "纽": 13507, "实战": 13508, "啥@@": 13509, "耕@@": 13510, "排涝": 13511, "时报讯": 13512, "二期": 13513, "通州": 13514, "定书": 13515, "商讨": 13516, "放过": 13517, "女星": 13518, "破损": 13519, "拾@@": 13520, "扩建": 13521, "氨@@": 13522, "su@@": 13523, "技术开发区": 13524, "蓄": 13525, "37.@@": 13526, "景德@@": 13527, "款人": 13528, "32.@@": 13529, "急诊@@": 13530, "踪迹": 13531, "筋": 13532, "科科长": 13533, "一点点": 13534, "悲伤": 13535, "室友": 13536, "炭": 13537, "肤@@": 13538, "留学生": 13539, "鄂@@": 13540, "雍@@": 13541, "小路": 13542, "赵先生": 13543, "追逐": 13544, "公司股票": 13545, "江北": 13546, "增友": 13547, "畸@@": 13548, "头像": 13549, "驳@@": 13550, "逃窜": 13551, "发微": 13552, "规范@@": 13553, "剧情": 13554, "抹@@": 13555, "承担@@": 13556, "收钱": 13557, "中文@@": 13558, "格兰": 13559, "筹集": 13560, "限度": 13561, "衍@@": 13562, "改革开放": 13563, "咸阳市": 13564, "磅": 13565, "示意": 13566, "解放": 13567, "高龄": 13568, "渴望": 13569, "架构": 13570, "劝导": 13571, "头号": 13572, "薛某": 13573, "十字@@": 13574, "第七": 13575, "申鑫": 13576, "佩斯": 13577, "邓超": 13578, "小明": 13579, "兰特": 13580, "髓": 13581, "缓期": 13582, "未满": 13583, "酌@@": 13584, "大幅度": 13585, "喻@@": 13586, "连连": 13587, "兜@@": 13588, "房贷": 13589, "当作": 13590, "爵士": 13591, "渎职": 13592, "美联储": 13593, "替换": 13594, "悠@@": 13595, "消防大队": 13596, "赏@@": 13597, "难得": 13598, "微博称": 13599, "连日来": 13600, "淹": 13601, "重要性": 13602, "一刀": 13603, "缆@@": 13604, "百年": 13605, "驶入": 13606, "投入使用": 13607, "android": 13608, "互": 13609, "确切": 13610, "颁布": 13611, "稳健": 13612, "原则上": 13613, "预售": 13614, "过失": 13615, "配方": 13616, "暴打": 13617, "卡希尔": 13618, "二度": 13619, "引人@@": 13620, "人权": 13621, "也好": 13622, "斗殴": 13623, "亭@@": 13624, "协议书": 13625, "老兵": 13626, "轮椅": 13627, "数年": 13628, "2001.@@": 13629, "救援队": 13630, "用电": 13631, "开放@@": 13632, "不说": 13633, "畴": 13634, "眼神": 13635, "西瓜": 13636, "菲特": 13637, "常规@@": 13638, "大同": 13639, "有害": 13640, "现实@@": 13641, "不容@@": 13642, "跪@@": 13643, "发射@@": 13644, "引爆": 13645, "发生意外": 13646, "卵": 13647, "蓝筹": 13648, "44@@": 13649, "仍旧": 13650, "栋@@": 13651, "韦德": 13652, "外套": 13653, "检察": 13654, "出演": 13655, "流向": 13656, "好莱坞": 13657, "劳动力": 13658, "生态环境": 13659, "夜晚": 13660, "动向": 13661, "十几个": 13662, "地板": 13663, "千年": 13664, "靓@@": 13665, "场均": 13666, "南沙": 13667, "体会": 13668, "较差": 13669, "框": 13670, "卡尔": 13671, "奋力": 13672, "钉": 13673, "可靠": 13674, "初一": 13675, "致歉": 13676, "绿化@@": 13677, "基层@@": 13678, "律@@": 13679, "脆@@": 13680, "蛋糕": 13681, "小强": 13682, "闲置": 13683, "溪县": 13684, "城中村": 13685, "首付": 13686, "性化": 13687, "行政部门": 13688, "不敢@@": 13689, "陈辉": 13690, "福利@@": 13691, "不容易": 13692, "中国电信": 13693, "工信@@": 13694, "佩德罗": 13695, "陌@@": 13696, "十分@@": 13697, "这天": 13698, "廊": 13699, "封存": 13700, "账目": 13701, "长官": 13702, "英镑": 13703, "实质性": 13704, "叫停": 13705, "百分@@": 13706, "关注@@": 13707, "厌@@": 13708, "0.0@@": 13709, "全体会议": 13710, "草原": 13711, "上楼": 13712, "有近": 13713, "112": 13714, "基本面": 13715, "熄@@": 13716, "双眼": 13717, "开采": 13718, "那次": 13719, "民党": 13720, "人会": 13721, "坠毁": 13722, "入侵": 13723, "出逃": 13724, "宴请": 13725, "海油": 13726, "震慑": 13727, "仅次于": 13728, "熬": 13729, "转弯": 13730, "拎": 13731, "鞍山": 13732, "粒@@": 13733, "眼球": 13734, "寓@@": 13735, "辅警": 13736, "社部": 13737, "win@@": 13738, "各种@@": 13739, "主任医师": 13740, "贵阳市": 13741, "绍兴": 13742, "跨省": 13743, "1400": 13744, "三层": 13745, "携手": 13746, "救起": 13747, "膏": 13748, "穆": 13749, "帖@@": 13750, "毒贩": 13751, "处理器": 13752, "单一": 13753, "纸币": 13754, "庆安": 13755, "嫩": 13756, "会场": 13757, "中央党校": 13758, "厮@@": 13759, "趋": 13760, "89@@": 13761, "动静": 13762, "独生子女": 13763, "卸任": 13764, "严格执行": 13765, "致其": 13766, "特地": 13767, "惊呆": 13768, "东方网": 13769, "闻讯": 13770, "婴幼儿": 13771, "水流": 13772, "银川": 13773, "王大@@": 13774, "12%": 13775, "厨师": 13776, "查清": 13777, "mg": 13778, "湘潭@@": 13779, "诊疗": 13780, "首富": 13781, "准考证": 13782, "尤文图斯": 13783, "争端": 13784, "幸亏": 13785, "功率": 13786, "灯光": 13787, "容忍": 13788, "优惠政策": 13789, "政法": 13790, "衰竭": 13791, "猴": 13792, "年均": 13793, "宴@@": 13794, "99.5@@": 13795, "印证": 13796, "邻居们": 13797, "聘用": 13798, "惊险": 13799, "宣传片": 13800, "漠": 13801, "争论": 13802, "营业执照": 13803, "温州市": 13804, "老人家": 13805, "朱立@@": 13806, "空袭": 13807, "围堵": 13808, "毛巾": 13809, "火机": 13810, "75%": 13811, "牡丹@@": 13812, "杰夫": 13813, "糟糕": 13814, "适": 13815, "丈@@": 13816, "小编": 13817, "俄罗斯@@": 13818, "组织部长": 13819, "胆": 13820, "第三个": 13821, "副镇长": 13822, "球衣": 13823, "铃": 13824, "衅": 13825, "宝鸡": 13826, "路传中": 13827, "趁着": 13828, "三亚市": 13829, "建立健全": 13830, "演唱会": 13831, "环路": 13832, "原始": 13833, "逐年": 13834, "纪录片": 13835, "刻意": 13836, "八年": 13837, "钓鱼": 13838, "暂无": 13839, "显现": 13840, "忆@@": 13841, "毛泽@@": 13842, "堆放": 13843, "送上": 13844, "卡梅@@": 13845, "拇指": 13846, "屁股": 13847, "尔多": 13848, "柔@@": 13849, "进场": 13850, "快车": 13851, "义务@@": 13852, "无锡市": 13853, "真心": 13854, "扩展": 13855, "功能@@": 13856, "锤": 13857, "明说": 13858, "书包": 13859, "小刚": 13860, "集装箱": 13861, "艳敏": 13862, "辩解": 13863, "前行": 13864, "肩膀": 13865, "借鉴": 13866, "讨要": 13867, "签订@@": 13868, "霆": 13869, "运气": 13870, "友谊": 13871, "屡屡": 13872, "国土局": 13873, "扒": 13874, "打斗": 13875, "佑": 13876, "轰炸": 13877, "压缩": 13878, "法医鉴定": 13879, "期内": 13880, "推倒": 13881, "网络安全": 13882, "本地人": 13883, "方便@@": 13884, "李志@@": 13885, "之风": 13886, "痛哭": 13887, "顶部": 13888, "格斯": 13889, "鄱@@": 13890, "儿科": 13891, "庭长": 13892, "开走": 13893, "煎@@": 13894, "避让": 13895, "坐下": 13896, "午": 13897, "疚": 13898, "叔": 13899, "空气@@": 13900, "运会": 13901, "沾@@": 13902, "逝": 13903, "栽@@": 13904, "拱@@": 13905, "娥": 13906, "俯@@": 13907, "馨": 13908, "垦": 13909, "肋@@": 13910, "客户@@": 13911, "甩": 13912, "淄@@": 13913, "杭": 13914, "厕": 13915, "裤@@": 13916, "抢劫@@": 13917, "朋": 13918, "酿": 13919, "宪@@": 13920, "哽@@": 13921, "尹": 13922, "囊@@": 13923, "年轻@@": 13924, "励@@": 13925, "受贿@@": 13926, "趣@@": 13927, "足联": 13928, "癌@@": 13929, "削@@": 13930, "侈@@": 13931, "计生@@": 13932, "描": 13933, "署@@": 13934, "删@@": 13935, "翔@@": 13936, "洒@@": 13937, "结婚@@": 13938, "逢@@": 13939, "甫": 13940, "姨@@": 13941, "熏@@": 13942, "膨@@": 13943, "摘": 13944, "坠": 13945, "昨@@": 13946, "顷": 13947, "菱": 13948, "谦": 13949, "炼": 13950, "位数": 13951, "越来@@": 13952, "灶": 13953, "唤": 13954, "涝": 13955, "硫@@": 13956, "陌": 13957, "里人": 13958, "谎": 13959, "地人": 13960, "傻": 13961, "斥@@": 13962, "狐@@": 13963, "蓬": 13964, "棒@@": 13965, "辨": 13966, "晤": 13967, "逻@@": 13968, "俞": 13969, "妃": 13970, "赐": 13971, "弘": 13972, "荫@@": 13973, "燎": 13974, "翠": 13975, "科院": 13976, "妍": 13977, "堰@@": 13978, "盾@@": 13979, "解决@@": 13980, "骤": 13981, "猜": 13982, "基金@@": 13983, "漫": 13984, "酱@@": 13985, "柯": 13986, "柄": 13987, "怡@@": 13988, "眠@@": 13989, "善后@@": 13990, "绪": 13991, "桐": 13992, "渔": 13993, "妄@@": 13994, "搡": 13995, "秆": 13996, "烫": 13997, "中年@@": 13998, "葫@@": 13999, "樟@@": 14000, "急救@@": 14001, "诽@@": 14002, "脊@@": 14003, "流动@@": 14004, "灿": 14005, "炜": 14006, "亟@@": 14007, "◎": 14008, "贿": 14009, "庙@@": 14010, "愧@@": 14011, "瑶": 14012, "沁@@": 14013, "辆@@": 14014, "鸽@@": 14015, "侣": 14016, "漳@@": 14017, "懒@@": 14018, "个月": 14019, "钰@@": 14020, "信访@@": 14021, "钞@@": 14022, "搀@@": 14023, "腹": 14024, "溺@@": 14025, "共和@@": 14026, "掷": 14027, "哺@@": 14028, "瞄@@": 14029, "凹@@": 14030, "迟": 14031, "潜": 14032, "撑": 14033, "裕@@": 14034, "焕@@": 14035, "谌@@": 14036, "舅@@": 14037, "轩@@": 14038, "胁@@": 14039, "攀": 14040, "凰@@": 14041, "茜": 14042, "祠": 14043, "挎@@": 14044, "睐": 14045, "筷@@": 14046, "锡": 14047, "垮": 14048, "窑@@": 14049, "冉": 14050, "纺": 14051, "寡@@": 14052, "凳@@": 14053, "尧": 14054, "阔@@": 14055, "纪律@@": 14056, "态@@": 14057, "腕": 14058, "申": 14059, "福建@@": 14060, "缅": 14061, "凳": 14062, "霉@@": 14063, "ub@@": 14064, "匪@@": 14065, "荡@@": 14066, "坦": 14067, "幂": 14068, "牲@@": 14069, "物价@@": 14070, "霞@@": 14071, "出走": 14072, "朴": 14073, "咱": 14074, "艾": 14075, "窄": 14076, "予@@": 14077, "朔@@": 14078, "禧": 14079, "吻@@": 14080, "煽@@": 14081, "菁": 14082, "拉克": 14083, "剥@@": 14084, "臀@@": 14085, "巫@@": 14086, "忻@@": 14087, "娩": 14088, "罚金": 14089, "宙": 14090, "ph@@": 14091, "骸": 14092, "捏@@": 14093, "渊": 14094, "徘@@": 14095, "丑": 14096, "嚣@@": 14097, "迹@@": 14098, "府@@": 14099, "戛@@": 14100, "溃@@": 14101, "妮@@": 14102, "怕@@": 14103, "桶@@": 14104, "攒": 14105, "辟": 14106, "阁@@": 14107, "毯@@": 14108, "师范@@": 14109, "盔": 14110, "咽@@": 14111, "政协@@": 14112, "爵@@": 14113, "徊": 14114, "轴": 14115, "帘": 14116, "秸@@": 14117, "悼@@": 14118, "腻": 14119, "纤@@": 14120, "陡@@": 14121, "彬@@": 14122, "循@@": 14123, "恭@@": 14124, "城乡@@": 14125, "管部门": 14126, "惋@@": 14127, "饱": 14128, "恨@@": 14129, "谦@@": 14130, "滕@@": 14131, "汶@@": 14132, "扯@@": 14133, "敞@@": 14134, "醇": 14135, "窑": 14136, "擒@@": 14137, "译": 14138, "巨": 14139, "恺": 14140, "豫@@": 14141, "钊": 14142, "霜": 14143, "翁@@": 14144, "汀": 14145, "丧": 14146, "碍@@": 14147, "冤": 14148, "兔@@": 14149, "衷@@": 14150, "窦@@": 14151, "柔": 14152, "嘘": 14153, "玥": 14154, "钦": 14155, "勃@@": 14156, "垄@@": 14157, "夷": 14158, "澄@@": 14159, "妨@@": 14160, "口气": 14161, "行星": 14162, "珊@@": 14163, "焰": 14164, "蜂": 14165, "现代@@": 14166, "缮": 14167, "函@@": 14168, "赋": 14169, "挨": 14170, "忽": 14171, "两口": 14172, "逸@@": 14173, "圭@@": 14174, "匝@@": 14175, "娘@@": 14176, "煮@@": 14177, "砂": 14178, "韬": 14179, "愤": 14180, "勺": 14181, "渠@@": 14182, "弓": 14183, "自律": 14184, "拾": 14185, "oo@@": 14186, "阮": 14187, "睹": 14188, "茫@@": 14189, "稀": 14190, "砂@@": 14191, "竖@@": 14192, "彰@@": 14193, "趁@@": 14194, "新一@@": 14195, "昕@@": 14196, "芽": 14197, "医药@@": 14198, "枫": 14199, "奉": 14200, "嵩@@": 14201, "耍": 14202, "甄@@": 14203, "闫": 14204, "锚": 14205, "巴巴": 14206, "阱": 14207, "扮@@": 14208, "妖": 14209, "尤": 14210, "林业@@": 14211, "例@@": 14212, "恳@@": 14213, "沭@@": 14214, "参考@@": 14215, "喷": 14216, "黎": 14217, "考试@@": 14218, "罂@@": 14219, "蝎@@": 14220, "束": 14221, "锈@@": 14222, "祸@@": 14223, "记者@@": 14224, "泵": 14225, "禄": 14226, "瞩@@": 14227, "吨@@": 14228, "惯": 14229, "堕@@": 14230, "裁": 14231, "庇@@": 14232, "熊猫": 14233, "文物@@": 14234, "邹": 14235, "岚": 14236, "乞@@": 14237, "舒": 14238, "长春@@": 14239, "投标": 14240, "痒": 14241, "伐": 14242, "apple@@": 14243, "骚@@": 14244, "姥@@": 14245, "雯@@": 14246, "诉人": 14247, "蟹": 14248, "郡": 14249, "疾": 14250, "喻": 14251, "竞争@@": 14252, "泊@@": 14253, "舱@@": 14254, "珀": 14255, "爽@@": 14256, "蔽": 14257, "仕@@": 14258, "无论@@": 14259, "ow@@": 14260, "滁@@": 14261, "谨": 14262, "钮": 14263, "砰": 14264, "灌": 14265, "筝": 14266, "芸@@": 14267, "执": 14268, "剪": 14269, "棕@@": 14270, "畏@@": 14271, "鞍@@": 14272, "媳": 14273, "琴@@": 14274, "★": 14275, "喆": 14276, "叛@@": 14277, "蔚@@": 14278, "德罗": 14279, "佬": 14280, "统计局": 14281, "谜": 14282, "熬@@": 14283, "冉@@": 14284, "把手": 14285, "狭@@": 14286, "窘@@": 14287, "哨@@": 14288, "突": 14289, "厢@@": 14290, "朵": 14291, "高度@@": 14292, "醋": 14293, "逗": 14294, "剂@@": 14295, "瑛": 14296, "垒": 14297, "维持@@": 14298, "尽量@@": 14299, "廊@@": 14300, "述@@": 14301, "儒": 14302, "挟": 14303, "绍": 14304, "屈": 14305, "冕@@": 14306, "遣@@": 14307, "诈骗@@": 14308, "大气@@": 14309, "旱@@": 14310, "闪": 14311, "蓉@@": 14312, "基础@@": 14313, "敦": 14314, "披": 14315, "崎@@": 14316, "浓": 14317, "翰": 14318, "谤": 14319, "霆@@": 14320, "蛮@@": 14321, "闵@@": 14322, "洽": 14323, "飙": 14324, "韵": 14325, "则@@": 14326, "尝@@": 14327, "讽@@": 14328, "喉": 14329, "抢救@@": 14330, "姬": 14331, "石家@@": 14332, "晓明": 14333, "卦": 14334, "悸": 14335, "授": 14336, "跻@@": 14337, "侨@@": 14338, "饥@@": 14339, "辙": 14340, "誓@@": 14341, "晕@@": 14342, "邑": 14343, "娱乐@@": 14344, "栅@@": 14345, "瑟@@": 14346, "筑@@": 14347, "燥": 14348, "鳄": 14349, "轧": 14350, "兜": 14351, "冀": 14352, "淫@@": 14353, "掘": 14354, "佐": 14355, "庸": 14356, "粪": 14357, "绎": 14358, "莹@@": 14359, "披@@": 14360, "孟": 14361, "歪": 14362, "勃": 14363, "忏@@": 14364, "绞@@": 14365, "恍@@": 14366, "诞@@": 14367, "嘲@@": 14368, "歼@@": 14369, "凿": 14370, "霜@@": 14371, "me": 14372, "逮@@": 14373, "衢@@": 14374, "浸": 14375, "赠": 14376, "叨": 14377, "绵": 14378, "淦": 14379, "鹅@@": 14380, "俭": 14381, "疤": 14382, "蔚": 14383, "姨": 14384, "window@@": 14385, "永康": 14386, "盎@@": 14387, "狡@@": 14388, "磕@@": 14389, "荧@@": 14390, "悦@@": 14391, "仗@@": 14392, "悉": 14393, "傅": 14394, "淋": 14395, "巡": 14396, "鞠@@": 14397, "靡": 14398, "募@@": 14399, "狸": 14400, "袖@@": 14401, "懈": 14402, "窨@@": 14403, "彦": 14404, "裹": 14405, "涩": 14406, "嫖": 14407, "挟@@": 14408, "骁@@": 14409, "焚": 14410, "么@@": 14411, "咐": 14412, "崎": 14413, "参": 14414, "诫@@": 14415, "岛市": 14416, "蛙": 14417, "克尔": 14418, "勒索": 14419, "寂@@": 14420, "乌鲁木@@": 14421, "枕@@": 14422, "榴@@": 14423, "巴马": 14424, "溜": 14425, "概": 14426, "嫂@@": 14427, "敷@@": 14428, "陋": 14429, "缜@@": 14430, "螂": 14431, "酝@@": 14432, "块@@": 14433, "鸽": 14434, "殿@@": 14435, "茫": 14436, "愧": 14437, "溯": 14438, "趴@@": 14439, "中央政治@@": 14440, "罕@@": 14441, "焕": 14442, "甥": 14443, "亳@@": 14444, "揭": 14445, "琪@@": 14446, "冶": 14447, "刹": 14448, "孜@@": 14449, "藻": 14450, "共产@@": 14451, "歇": 14452, "辄": 14453, "届@@": 14454, "巢@@": 14455, "吼": 14456, "实验@@": 14457, "袋@@": 14458, "肚": 14459, "摁": 14460, "芒": 14461, "匹": 14462, "邮": 14463, "翘@@": 14464, "障@@": 14465, "共和国": 14466, "禺": 14467, "厅@@": 14468, "尔夫@@": 14469, "聪@@": 14470, "氯@@": 14471, "鄂": 14472, "扇@@": 14473, "匠": 14474, "栖": 14475, "谜@@": 14476, "邸": 14477, "禾": 14478, "邢": 14479, "肌": 14480, "税局": 14481, "斐@@": 14482, "肪": 14483, "远处": 14484, "庞": 14485, "骏@@": 14486, "缔@@": 14487, "瑜@@": 14488, "滴@@": 14489, "须@@": 14490, "太太": 14491, "恼@@": 14492, "铃@@": 14493, "人员@@": 14494, "窖": 14495, "沫": 14496, "堪@@": 14497, "猖@@": 14498, "统计@@": 14499, "植": 14500, "摩托@@": 14501, "博物@@": 14502, "辈子": 14503, "钓@@": 14504, "一点@@": 14505, "僧": 14506, "厥": 14507, "靳@@": 14508, "厉": 14509, "粥": 14510, "岔@@": 14511, "嵩": 14512, "伊斯@@": 14513, "敲诈@@": 14514, "监察@@": 14515, "樱@@": 14516, "掩": 14517, "奏@@": 14518, "齿": 14519, "吉林@@": 14520, "祉": 14521, "妞": 14522, "倡": 14523, "现场@@": 14524, "诬@@": 14525, "职权": 14526, "圭": 14527, "捅@@": 14528, "盗窃@@": 14529, "奄@@": 14530, "糯@@": 14531, "佘@@": 14532, "郊@@": 14533, "寸@@": 14534, "毗@@": 14535, "检察@@": 14536, "皓": 14537, "刃": 14538, "锌@@": 14539, "蔽@@": 14540, "彝@@": 14541, "app@@": 14542, "舸": 14543, "沧": 14544, "宵@@": 14545, "橘@@": 14546, "芭@@": 14547, "畔": 14548, "邵": 14549, "禹@@": 14550, "橙": 14551, "矮": 14552, "步行@@": 14553, "唯": 14554, "矮@@": 14555, "姑": 14556, "稿@@": 14557, "饮": 14558, "蹦@@": 14559, "挝": 14560, "洽@@": 14561, "梗@@": 14562, "呛": 14563, "栏@@": 14564, "抑": 14565, "瑶@@": 14566, "嘱@@": 14567, "棠": 14568, "都市@@": 14569, "奕@@": 14570, "id": 14571, "ch": 14572, "煜@@": 14573, "馒@@": 14574, "姿": 14575, "帆@@": 14576, "理事@@": 14577, "伽": 14578, "邻居@@": 14579, "懊@@": 14580, "谩@@": 14581, "掀@@": 14582, "虐": 14583, "真实@@": 14584, "甚": 14585, "哗@@": 14586, "卉": 14587, "俭@@": 14588, "发现@@": 14589, "梓@@": 14590, "贞": 14591, "蛛@@": 14592, "妈@@": 14593, "攒@@": 14594, "自治@@": 14595, "焊@@": 14596, "搐": 14597, "哀": 14598, "委员@@": 14599, "饿@@": 14600, "唤@@": 14601, "贞@@": 14602, "滇@@": 14603, "埔": 14604, "滥@@": 14605, "硫": 14606, "绮": 14607, "穗": 14608, "苑@@": 14609, "猥@@": 14610, "唏@@": 14611, "杠": 14612, "扛@@": 14613, "﻿": 14614, "页@@": 14615, "欺@@": 14616, "堡@@": 14617, "驴@@": 14618, "译@@": 14619, "鄞@@": 14620, "虐@@": 14621, "粟@@": 14622, "坞": 14623, "慨": 14624, "安徽@@": 14625, "糕": 14626, "嫌@@": 14627, "的是": 14628, "钙": 14629, "妖@@": 14630, "怎@@": 14631, "掏": 14632, "玩笑": 14633, "喘": 14634, "闵": 14635, "剖": 14636, "庇": 14637, "椎@@": 14638, "遥": 14639, "匆@@": 14640, "谊@@": 14641, "姗@@": 14642, "酮": 14643, "倩@@": 14644, "柬@@": 14645, "樊": 14646, "智能@@": 14647, "地下@@": 14648, "廷@@": 14649, "腕@@": 14650, "幅@@": 14651, "葡@@": 14652, "弓@@": 14653, "匪": 14654, "淫": 14655, "霄": 14656, "咙": 14657, "曰": 14658, "寞": 14659, "硅@@": 14660, "杀人@@": 14661, "蟑@@": 14662, "咒": 14663, "措@@": 14664, "溧@@": 14665, "西班@@": 14666, "拌@@": 14667, "驶": 14668, "洼": 14669, "沓": 14670, "帜": 14671, "共产党": 14672, "人大@@": 14673, "够@@": 14674, "暑@@": 14675, "趾": 14676, "忌@@": 14677, "契": 14678, "狩@@": 14679, "褚@@": 14680, "揣@@": 14681, "祭": 14682, "璋": 14683, "晏@@": 14684, "恢复@@": 14685, "瑟": 14686, "瓣": 14687, "惫": 14688, "拯@@": 14689, "幌@@": 14690, "享": 14691, "鹭": 14692, "烹@@": 14693, "寨@@": 14694, "笋": 14695, "哈尔@@": 14696, "杖": 14697, "委书记": 14698, "豫": 14699, "厉@@": 14700, "武汉@@": 14701, "瞒": 14702, "新华@@": 14703, "筋@@": 14704, "锣@@": 14705, "璧@@": 14706, "爷@@": 14707, "洱": 14708, "疤@@": 14709, "鲨@@": 14710, "就是说": 14711, "森林@@": 14712, "呵": 14713, "锯@@": 14714, "芦": 14715, "本山": 14716, "剔@@": 14717, "恳": 14718, "盼@@": 14719, "扁": 14720, "叔@@": 14721, "痰": 14722, "壳@@": 14723, "民工": 14724, "爵": 14725, "癫@@": 14726, "荐": 14727, "事务@@": 14728, "奕": 14729, "歉": 14730, "宛@@": 14731, "沾": 14732, "斌@@": 14733, "磁": 14734, "渴": 14735, "悼": 14736, "炉@@": 14737, "耕": 14738, "厘@@": 14739, "殷": 14740, "年人": 14741, "芮": 14742, "巍": 14743, "厌": 14744, "冰冰": 14745, "纵": 14746, "黏@@": 14747, "惧": 14748, "侠@@": 14749, "圃": 14750, "嫣": 14751, "惟@@": 14752, "昼@@": 14753, "铸@@": 14754, "亨": 14755, "咪": 14756, "颤@@": 14757, "瞅": 14758, "竿": 14759, "颐@@": 14760, "缪@@": 14761, "娅": 14762, "撼": 14763, "麟@@": 14764, "儒@@": 14765, "逞": 14766, "撕": 14767, "煜": 14768, "玲@@": 14769, "伸": 14770, "职务@@": 14771, "娜@@": 14772, "崭@@": 14773, "辰@@": 14774, "碗@@": 14775, "峪": 14776, "玮": 14777, "膝@@": 14778, "梨": 14779, "炅": 14780, "瞭@@": 14781, "阪": 14782, "长沙@@": 14783, "摄像@@": 14784, "梭": 14785, "集团@@": 14786, "颅": 14787, "括": 14788, "寥@@": 14789, "婴@@": 14790, "赟": 14791, "淳@@": 14792, "耍@@": 14793, "↑": 14794, "gd@@": 14795, "刹@@": 14796, "擎@@": 14797, "夸": 14798, "匀": 14799, "广西@@": 14800, "啃": 14801, "糟": 14802, "一次@@": 14803, "矛@@": 14804, "伐@@": 14805, "作物": 14806, "扁@@": 14807, "俘@@": 14808, "卫队": 14809, "棉": 14810, "崖@@": 14811, "粟": 14812, "瘫@@": 14813, "不法@@": 14814, "乒@@": 14815, "嗓@@": 14816, "瞒@@": 14817, "奏": 14818, "飘": 14819, "踝": 14820, "蒿@@": 14821, "焚@@": 14822, "渊@@": 14823, "栗@@": 14824, "帽@@": 14825, "您@@": 14826, "琛": 14827, "络": 14828, "症@@": 14829, "潍@@": 14830, "胞@@": 14831, "捍@@": 14832, "袍": 14833, "肘": 14834, "鲤@@": 14835, "杉": 14836, "窜@@": 14837, "部件": 14838, "髓@@": 14839, "补偿@@": 14840, "槿@@": 14841, "飚": 14842, "眶": 14843, "赣": 14844, "瑰": 14845, "鸦": 14846, "犀@@": 14847, "溯@@": 14848, "兄@@": 14849, "饼@@": 14850, "俺": 14851, "旬@@": 14852, "溉": 14853, "城镇@@": 14854, "妨": 14855, "耐": 14856, "嗯": 14857, "祯": 14858, "掺@@": 14859, "诟@@": 14860, "芯": 14861, "薯": 14862, "灶@@": 14863, "蒜": 14864, "躬": 14865, "纤": 14866, "肋": 14867, "捆": 14868, "庸@@": 14869, "养费": 14870, "捏": 14871, "捧@@": 14872, "汛@@": 14873, "碳@@": 14874, "会儿": 14875, "琦@@": 14876, "催": 14877, "事故@@": 14878, "交叉@@": 14879, "竭@@": 14880, "狙@@": 14881, "雀": 14882, "→": 14883, "构": 14884, "卑@@": 14885, "睁": 14886, "浙": 14887, "涯": 14888, "发表@@": 14889, "寇": 14890, "饵": 14891, "冕": 14892, "俨@@": 14893, "帷@@": 14894, "慈": 14895, "肛@@": 14896, "拮@@": 14897, "镖": 14898, "豁@@": 14899, "睬": 14900, "苯": 14901, "藤": 14902, "祷": 14903, "弊@@": 14904, "霉": 14905, "殉@@": 14906, "轴@@": 14907, "徇@@": 14908, "炯": 14909, "立案@@": 14910, "部级": 14911, "斤@@": 14912, "△": 14913, "彗@@": 14914, "毓@@": 14915, "蝶": 14916, "晏": 14917, "岑@@": 14918, "蚕@@": 14919, "嬉@@": 14920, "愚@@": 14921, "妊@@": 14922, "三分@@": 14923, "惜@@": 14924, "绣": 14925, "沽": 14926, "大连@@": 14927, "滥": 14928, "缉": 14929, "泌@@": 14930, "中级@@": 14931, "瑰@@": 14932, "蒲": 14933, "俑": 14934, "镑": 14935, "且@@": 14936, "绷@@": 14937, "沥@@": 14938, "启": 14939, "疵": 14940, "莞@@": 14941, "躺@@": 14942, "筐": 14943, "嚷": 14944, "侵": 14945, "郦@@": 14946, "蕊": 14947, "赃@@": 14948, "取得@@": 14949, "吾": 14950, "昱@@": 14951, "孵@@": 14952, "养老@@": 14953, "膝": 14954, "膀@@": 14955, "尧@@": 14956, "andro@@": 14957, "侍@@": 14958, "'": 14959, "蹄": 14960, "勋@@": 14961, "泣@@": 14962, "夭@@": 14963, "晰@@": 14964, "侈": 14965, "腺": 14966, "玮@@": 14967, "天然@@": 14968, "魂@@": 14969, "婺@@": 14970, "逸": 14971, "澳大@@": 14972, "枉": 14973, "谨@@": 14974, "屉": 14975, "桦": 14976, "新生@@": 14977, "峻@@": 14978, "衍": 14979, "俪": 14980, "滕": 14981, "枢": 14982, "钓": 14983, "仕": 14984, "酬@@": 14985, "铐": 14986, "腱": 14987, "拌": 14988, "乙": 14989, "爹@@": 14990, "姥": 14991, "铝": 14992, "秤": 14993, "考证": 14994, "倪": 14995, "被告@@": 14996, "医务@@": 14997, "辖@@": 14998, "痊@@": 14999, "讳": 15000, "哑@@": 15001, "慑": 15002, "―": 15003, "啸": 15004, "它@@": 15005, "瞎@@": 15006, "寂": 15007, "违法@@": 15008, "愣": 15009, "屎": 15010, "梳@@": 15011, "俏@@": 15012, "约翰@@": 15013, "篡@@": 15014, "懵": 15015, "悬": 15016, "峪@@": 15017, "帐": 15018, "蔺@@": 15019, "枕": 15020, "疏": 15021, "咏@@": 15022, "董事@@": 15023, "旷@@": 15024, "人者": 15025, "茅": 15026, "麒@@": 15027, "沛": 15028, "镯": 15029, "突发@@": 15030, "眉": 15031, "甥@@": 15032, "诸": 15033, "晾@@": 15034, "绰@@": 15035, "枉@@": 15036, "蹬": 15037, "掠@@": 15038, "昏": 15039, "娣": 15040, "谍@@": 15041, "妃@@": 15042, "亵@@": 15043, "惑@@": 15044, "隐": 15045, "秘书@@": 15046, "堤@@": 15047, "惶@@": 15048, "徽": 15049, "韧@@": 15050, "姗": 15051, "嘀@@": 15052, "知识@@": 15053, "芜": 15054, "雁": 15055, "羞": 15056, "蕴@@": 15057, "唬": 15058, "姝@@": 15059, "枭": 15060, "澡": 15061, "啤@@": 15062, "允@@": 15063, "婧": 15064, "蛙@@": 15065, "央": 15066, "乏": 15067, "蝉@@": 15068, "闽": 15069, "环卫@@": 15070, "锻@@": 15071, "睦": 15072, "芹": 15073, "襄@@": 15074, "崩": 15075, "椰@@": 15076, "槐@@": 15077, "浇": 15078, "岚@@": 15079, "巅@@": 15080, "悍": 15081, "绊@@": 15082, "甘肃@@": 15083, "询@@": 15084, "棱@@": 15085, "拉里": 15086, "大众@@": 15087, "烛": 15088, "泾@@": 15089, "淳": 15090, "懒": 15091, "巍@@": 15092, "擒": 15093, "漂": 15094, "购房@@": 15095, "锯": 15096, "郝": 15097, "纠": 15098, "执照": 15099, "逊@@": 15100, "惚": 15101, "囧": 15102, "苯@@": 15103, "发布@@": 15104, "琢@@": 15105, "崽": 15106, "姣": 15107, "楷": 15108, "葵@@": 15109, "雀@@": 15110, "氮": 15111, "芃": 15112, "蕉": 15113, "矢@@": 15114, "粽@@": 15115, "茹": 15116, "扭": 15117, "讪": 15118, "岂@@": 15119, "魄": 15120, "虞": 15121, "傲@@": 15122, "汲@@": 15123, "匡@@": 15124, "惧@@": 15125, "栈": 15126, "沛@@": 15127, "搁@@": 15128, "劈": 15129, "相对@@": 15130, "罹@@": 15131, "啪": 15132, "魁@@": 15133, "昨": 15134, "是说": 15135, "谱@@": 15136, "茬": 15137, "滋": 15138, "詹": 15139, "悟@@": 15140, "弩": 15141, "水果@@": 15142, "挪": 15143, "媛@@": 15144, "掘@@": 15145, "郫@@": 15146, "哆": 15147, "暇": 15148, "厨": 15149, "主持@@": 15150, "翟": 15151, "拘": 15152, "陀@@": 15153, "抠": 15154, "匈@@": 15155, "淼": 15156, "瀑@@": 15157, "宠": 15158, "炬": 15159, "谓": 15160, "葱": 15161, "齿@@": 15162, "one": 15163, "耻": 15164, "邬@@": 15165, "溅": 15166, "鸳@@": 15167, "竖": 15168, "嫩@@": 15169, "强奸@@": 15170, "啼@@": 15171, "鲸@@": 15172, "灸": 15173, "秒@@": 15174, "御": 15175, "砌": 15176, "淇": 15177, "麓": 15178, "侃": 15179, "铅": 15180, "坛@@": 15181, "栽": 15182, "婕": 15183, "飙@@": 15184, "环球@@": 15185, "峥": 15186, "择": 15187, "靶@@": 15188, "禅": 15189, "祎": 15190, "娠": 15191, "原判": 15192, "铮": 15193, "°": 15194, "宙@@": 15195, "陕": 15196, "昊@@": 15197, "疹": 15198, "荥@@": 15199, "祀": 15200, "钳": 15201, "瑕@@": 15202, "邪": 15203, "羹": 15204, "泻": 15205, "晟": 15206, "琐": 15207, "乾": 15208, "遣": 15209, "宸": 15210, "浊": 15211, "褐@@": 15212, "常务@@": 15213, "嗅@@": 15214, "捆@@": 15215, "讷@@": 15216, "渲@@": 15217, "违规@@": 15218, "衰": 15219, "}": 15220, "匾": 15221, "利于": 15222, "晰": 15223, "厝": 15224, "馅": 15225, "券@@": 15226, "湍@@": 15227, "镐": 15228, "绒@@": 15229, "喘@@": 15230, "祛@@": 15231, "诀": 15232, "毕": 15233, "碱": 15234, "氮@@": 15235, "恕": 15236, "卑": 15237, "枣": 15238, "塌@@": 15239, "咧@@": 15240, "咧": 15241, "蝴@@": 15242, "汹@@": 15243, "腥": 15244, "讽": 15245, "遛@@": 15246, "沮@@": 15247, "佑@@": 15248, "王思@@": 15249, "佟@@": 15250, "腔@@": 15251, "懂@@": 15252, "郧@@": 15253, "竭": 15254, "禺@@": 15255, "巩": 15256, "蜷@@": 15257, "螺": 15258, "袜@@": 15259, "陨@@": 15260, "奈": 15261, "僚": 15262, "橙@@": 15263, "橄@@": 15264, "藩@@": 15265, "叉@@": 15266, "绣@@": 15267, "淘": 15268, "cf@@": 15269, "滩@@": 15270, "挚": 15271, "鸯": 15272, "淇@@": 15273, "蹿@@": 15274, "物园": 15275, "驿@@": 15276, "倦": 15277, "蒸": 15278, "哒": 15279, "棵@@": 15280, "蓓": 15281, "交警@@": 15282, "搂@@": 15283, "灼@@": 15284, "兢@@": 15285, "攸@@": 15286, "庵": 15287, "颍@@": 15288, "跆@@": 15289, "颓@@": 15290, "覃": 15291, "帘@@": 15292, "慷@@": 15293, "诡@@": 15294, "慕": 15295, "瞿@@": 15296, "盲": 15297, "恙": 15298, "雌@@": 15299, "逍@@": 15300, "舅": 15301, "槐": 15302, "尉@@": 15303, "袱": 15304, "诿": 15305, "墅@@": 15306, "憋@@": 15307, "驰@@": 15308, "涡": 15309, "吾@@": 15310, "觅@@": 15311, "扼@@": 15312, "窿": 15313, "酱": 15314, "优惠@@": 15315, "咱@@": 15316, "屑": 15317, "键@@": 15318, "①": 15319, "②": 15320, "掰": 15321, "鸨": 15322, "斧": 15323, "明市": 15324, "瘤@@": 15325, "胚@@": 15326, "_@@": 15327, "徐纯@@": 15328, "罔@@": 15329, "稚@@": 15330, "涪@@": 15331, "辜@@": 15332, "弛": 15333, "岑": 15334, "悲": 15335, "臂@@": 15336, "滤": 15337, "喧@@": 15338, "栾@@": 15339, "撬": 15340, "澡@@": 15341, "珺@@": 15342, "撇@@": 15343, "栓@@": 15344, "允": 15345, "审判决": 15346, "娄": 15347, "伞@@": 15348, "藕": 15349, "嚣": 15350, "酋": 15351, "耻@@": 15352, "龟@@": 15353, "煲": 15354, "萄": 15355, "胀@@": 15356, "崇": 15357, "彻": 15358, "雹@@": 15359, "治党": 15360, "苛@@": 15361, "办事@@": 15362, "敖@@": 15363, "佟": 15364, "凿@@": 15365, "烁": 15366, "旦@@": 15367, "勉@@": 15368, "‰": 15369, "凹": 15370, "甄": 15371, "夯@@": 15372, "歉@@": 15373, "官方@@": 15374, "涯@@": 15375, "阜": 15376, "辱@@": 15377, "溢": 15378, "志愿@@": 15379, "嫉@@": 15380, "烘@@": 15381, "榄@@": 15382, "删": 15383, "窟@@": 15384, "憔@@": 15385, "悴": 15386, "蟒": 15387, "慑@@": 15388, "穴@@": 15389, "懈@@": 15390, "邺@@": 15391, "议书": 15392, "潼@@": 15393, "嵌": 15394, "彤@@": 15395, "猾": 15396, "亢@@": 15397, "妞@@": 15398, "珲@@": 15399, "勿@@": 15400, "诧@@": 15401, "访者": 15402, "颂": 15403, "枯": 15404, "丐": 15405, "睿@@": 15406, "琍": 15407, "追究@@": 15408, "假日": 15409, "孜": 15410, "加油@@": 15411, "掠": 15412, "酗@@": 15413, "蛟": 15414, "全体@@": 15415, "爪": 15416, "澄": 15417, "鲸": 15418, "搁": 15419, "㎡": 15420, "漠@@": 15421, "蜘@@": 15422, "虏": 15423, "贱@@": 15424, "ba": 15425, "环保@@": 15426, "徽@@": 15427, "拭": 15428, "倚@@": 15429, "茄@@": 15430, "捂": 15431, "粘": 15432, "不好@@": 15433, "试验@@": 15434, "溆@@": 15435, "褒@@": 15436, "廓": 15437, "脾@@": 15438, "杉@@": 15439, "棺": 15440, "斩": 15441, "胰@@": 15442, "碟": 15443, "魁": 15444, "辽": 15445, "鸦@@": 15446, "咚": 15447, "婶": 15448, "叙": 15449, "遴@@": 15450, "豚": 15451, "疙@@": 15452, "虞@@": 15453, "拘禁": 15454, "任何@@": 15455, "金正@@": 15456, "心人": 15457, "消息@@": 15458, "肤": 15459, "饺@@": 15460, "嘟@@": 15461, "蠢@@": 15462, "倘@@": 15463, "雹": 15464, "襟": 15465, "骼": 15466, "酶": 15467, "鳌": 15468, "颂@@": 15469, "杨卫@@": 15470, "蓓@@": 15471, "嵊@@": 15472, "炫": 15473, "哑": 15474, "哇@@": 15475, "翅@@": 15476, "pi": 15477, "挥": 15478, "栗": 15479, "慕阳": 15480, "聋@@": 15481, "救助@@": 15482, "菅@@": 15483, "娟@@": 15484, "垃@@": 15485, "谅": 15486, "宠@@": 15487, "缚": 15488, "钩@@": 15489, "坳": 15490, "馨@@": 15491, "磊@@": 15492, "汛": 15493, "憧@@": 15494, "憬": 15495, "瞧": 15496, "觅": 15497, "牌号": 15498, "戚@@": 15499, "搂": 15500, "淆": 15501, "踞": 15502, "击者": 15503, "贼@@": 15504, "分析@@": 15505, "噬": 15506, "耿": 15507, "垣": 15508, "绒": 15509, "用职权": 15510, "寅@@": 15511, "斐": 15512, "氢": 15513, "徙": 15514, "害者": 15515, "自来@@": 15516, "娱": 15517, "阀": 15518, "阀@@": 15519, "抖@@": 15520, "翘": 15521, "榆": 15522, "抗日@@": 15523, "沼@@": 15524, "豹@@": 15525, "销商": 15526, "凄@@": 15527, "寮": 15528, "怂@@": 15529, "嗨": 15530, "沐@@": 15531, "职人员": 15532, "碉@@": 15533, "懋": 15534, "睢@@": 15535, "匣@@": 15536, "笃@@": 15537, "督": 15538, "梓": 15539, "屡": 15540, "fa@@": 15541, "殊": 15542, "哇": 15543, "华盛@@": 15544, "哟": 15545, "氢@@": 15546, "救援@@": 15547, "励": 15548, "锹": 15549, "言人": 15550, "瑄": 15551, "莽": 15552, "菁@@": 15553, "炬@@": 15554, "愁@@": 15555, "锈": 15556, "涕": 15557, "咳": 15558, "皖": 15559, "涉案@@": 15560, "墨西@@": 15561, "瞻": 15562, "褚": 15563, "嚎@@": 15564, "裹@@": 15565, "瘩": 15566, "厨@@": 15567, "獗": 15568, "刨": 15569, "蟋@@": 15570, "蟀": 15571, "庚": 15572, "难者": 15573, "瞎": 15574, "漩@@": 15575, "韵@@": 15576, "巾@@": 15577, "拴@@": 15578, "胤": 15579, "啸@@": 15580, "严厉@@": 15581, "馍": 15582, "烯": 15583, "囤@@": 15584, "茵": 15585, "咕": 15586, "媚": 15587, "乃": 15588, "国土@@": 15589, "诏@@": 15590, "剿": 15591, "秽@@": 15592, "ⅱ": 15593, "涟@@": 15594, "哎@@": 15595, "烁@@": 15596, "306": 15597, "族自治区": 15598, "饪": 15599, "崂@@": 15600, "灏": 15601, "煎": 15602, "啕@@": 15603, "永信": 15604, "瑚": 15605, "恿": 15606, "爪@@": 15607, "预": 15608, "凝": 15609, "滋事": 15610, "袄": 15611, "黯@@": 15612, "峨@@": 15613, "鲍": 15614, "苟@@": 15615, "梗": 15616, "ec": 15617, "意大@@": 15618, "∶": 15619, "370": 15620, "萝": 15621, "碧": 15622, "哎": 15623, "咎@@": 15624, "涧@@": 15625, "支部": 15626, "汀@@": 15627, "臧@@": 15628, "坂@@": 15629, "蜗@@": 15630, "铤@@": 15631, "谣@@": 15632, "乍@@": 15633, "们@@": 15634, "恤@@": 15635, "嘭": 15636, "矣": 15637, "簸": 15638, "卤@@": 15639, "疮": 15640, "翡@@": 15641, "郓@@": 15642, "孰@@": 15643, "乓@@": 15644, "汞": 15645, "娶@@": 15646, "箔": 15647, "猩@@": 15648, "妒": 15649, "寅": 15650, "涧": 15651, "原市": 15652, "她@@": 15653, "呗": 15654, "随身@@": 15655, "溺": 15656, "瓯@@": 15657, "聂": 15658, "棘@@": 15659, "诠@@": 15660, "虾@@": 15661, "珞@@": 15662, "榕": 15663, "哈尔滨@@": 15664, "酪": 15665, "湛": 15666, "珂": 15667, "漱": 15668, "削": 15669, "媚@@": 15670, "褪@@": 15671, "搓": 15672, "<": 15673, "惮": 15674, "ⅲ": 15675, "嫦@@": 15676, "逾@@": 15677, "锄@@": 15678, "氨": 15679, "垂": 15680, "蜀": 15681, "跤": 15682, "汰@@": 15683, "孤": 15684, "牵": 15685, "③": 15686, "瞰": 15687, "瘾@@": 15688, "歧@@": 15689, "刃@@": 15690, "喃@@": 15691, "玻": 15692, "譬@@": 15693, "努": 15694, "膀": 15695, "新社": 15696, "埂": 15697, "裴": 15698, "曙@@": 15699, "膏@@": 15700, "屹": 15701, "嵌@@": 15702, "mh@@": 15703, "霁@@": 15704, "犁@@": 15705, "奴@@": 15706, "炕": 15707, "皱@@": 15708, "吏": 15709, "磷": 15710, "亢": 15711, "隽": 15712, "dn@@": 15713, "瀚": 15714, "贯彻@@": 15715, "澧@@": 15716, "纬@@": 15717, "綦@@": 15718, "剐": 15719, "穗@@": 15720, "脖@@": 15721, "药材": 15722, "瓣@@": 15723, "情节@@": 15724, "贬@@": 15725, "淌": 15726, "褥": 15727, "囱": 15728, "吟": 15729, "军委": 15730, "摞": 15731, "翰@@": 15732, "恺@@": 15733, "肘@@": 15734, "抉@@": 15735, "荐@@": 15736, "葵": 15737, "靴": 15738, "膜@@": 15739, "诞": 15740, "蠢": 15741, "峻": 15742, "巴车": 15743, "痫": 15744, "平方@@": 15745, "驱": 15746, "妆@@": 15747, "隅": 15748, "絮": 15749, "耘": 15750, "咯": 15751, "陀": 15752, "瑾": 15753, "蛟@@": 15754, "辑@@": 15755, "氓": 15756, "涡@@": 15757, "毋@@": 15758, "内蒙古@@": 15759, "豌@@": 15760, "窟": 15761, "禄@@": 15762, "蹴@@": 15763, "派出@@": 15764, "蜥@@": 15765, "煌@@": 15766, "吼@@": 15767, "权人": 15768, "臻": 15769, "颊": 15770, "嚼": 15771, "琨": 15772, "营企业": 15773, "寝": 15774, "羚": 15775, "谐@@": 15776, "颤": 15777, "沣": 15778, "帚": 15779, "户外@@": 15780, "泌": 15781, "丫@@": 15782, "罕": 15783, "敷": 15784, "愉": 15785, "毙": 15786, "痕@@": 15787, "俏": 15788, "柠@@": 15789, "烃": 15790, "峭": 15791, "泔@@": 15792, "驯@@": 15793, "苍": 15794, "杞@@": 15795, "皂": 15796, "焰@@": 15797, "糟@@": 15798, "脓": 15799, "蒜@@": 15800, "俘": 15801, "分钱": 15802, "磕": 15803, "掖": 15804, "生人": 15805, "呐": 15806, "揪": 15807, "僻": 15808, "唠@@": 15809, "菩@@": 15810, "吧@@": 15811, "潞@@": 15812, "诅@@": 15813, "啪@@": 15814, "抡": 15815, "忐@@": 15816, "茄": 15817, "茆@@": 15818, "芋": 15819, "纪检@@": 15820, "叛": 15821, "匮@@": 15822, "诋@@": 15823, "沱@@": 15824, "婪": 15825, "炳": 15826, "婶@@": 15827, "杨秀@@": 15828, "澈": 15829, "篪": 15830, "胞胎": 15831, "昭": 15832, "贵州@@": 15833, "新加@@": 15834, "缢@@": 15835, "钒": 15836, "渎@@": 15837, "祟": 15838, "镶@@": 15839, "〔": 15840, "〕": 15841, "晗": 15842, "鲨": 15843, "膦": 15844, "钓鱼@@": 15845, "沐": 15846, "蹈@@": 15847, "昵@@": 15848, "柿": 15849, "檬@@": 15850, "通知@@": 15851, "贻@@": 15852, "揍": 15853, "恪@@": 15854, "戳@@": 15855, "俐": 15856, "硝": 15857, "泛": 15858, "马逊": 15859, "蚁@@": 15860, "蝎": 15861, "蛊@@": 15862, "尉": 15863, "拷@@": 15864, "奚@@": 15865, "役@@": 15866, "锦赛": 15867, "荫": 15868, "钝@@": 15869, "珀@@": 15870, "骚": 15871, "罄": 15872, "紊@@": 15873, "耸@@": 15874, "唆": 15875, "制造@@": 15876, "毙@@": 15877, "剃@@": 15878, "卒": 15879, "歹@@": 15880, "中华人民@@": 15881, "痹": 15882, "窄@@": 15883, "膳@@": 15884, "冢": 15885, "恢@@": 15886, "渍": 15887, "耽@@": 15888, "钾": 15889, "忆": 15890, "璇": 15891, "椁": 15892, "蚝": 15893, "桨": 15894, "惦@@": 15895, "胫@@": 15896, "梧": 15897, "揉": 15898, "赂@@": 15899, "咳@@": 15900, "汁@@": 15901, "伎@@": 15902, "蕴": 15903, "冥@@": 15904, "猩": 15905, "畬": 15906, "拣": 15907, "敞": 15908, "慨@@": 15909, "汾": 15910, "呷": 15911, "跋@@": 15912, "潢": 15913, "瞬@@": 15914, "戎@@": 15915, "苟": 15916, "呕@@": 15917, "菠@@": 15918, "钰": 15919, "绰": 15920, "葱@@": 15921, "赟@@": 15922, "阶": 15923, "孚": 15924, "ers": 15925, "馈": 15926, "墟": 15927,
[...]
